/**
  ******************************************************************************
  * @file    model_data_params.c
  * @author  AST Embedded Analytics Research Platform
  * @date    2024-12-07T14:45:44+0100
  * @brief   AI Tool Automatic Code Generator for Embedded NN computing
  ******************************************************************************
  * Copyright (c) 2024 STMicroelectronics.
  * All rights reserved.
  *
  * This software is licensed under terms that can be found in the LICENSE file
  * in the root directory of this software component.
  * If no LICENSE file comes with this software, it is provided AS-IS.
  ******************************************************************************
  */

#include "model_data_params.h"


/**  Activations Section  ****************************************************/
ai_handle g_model_activations_table[1 + 2] = {
  AI_HANDLE_PTR(AI_MAGIC_MARKER),
  AI_HANDLE_PTR(NULL),
  AI_HANDLE_PTR(AI_MAGIC_MARKER),
};




/**  Weights Section  ********************************************************/
AI_ALIGNED(32)
const ai_u64 s_model_weights_array_u64[4547] = {
  0x3d84a59d3e96ee4bU, 0x3e5a3912bd3850efU, 0xbdf0bf83be75bca5U, 0x3d52673e3e6cbf77U,
  0xbe89b348be84e26fU, 0xbd1227093dca7b41U, 0x3eb78bc8bdf47a6aU, 0xbe9678efbdbc5a7cU,
  0xbe2b6433bd8126bbU, 0xbe41ff4ebe8bcbe2U, 0xbe548bd5bdedc033U, 0x3e594c0ebeac98e8U,
  0xbe549fcfbeac87e3U, 0x3dd51b773e035b4cU, 0xbe128f663ea65951U, 0x3e0c40a2be0bb65eU,
  0x3da93065bde2e8bbU, 0xbdd276cb3c36c6ebU, 0x3e416c9f3e6db85bU, 0x3e9417febdc36412U,
  0xbddbf4e8bd6778b1U, 0x3ea40684bd904384U, 0x3e6999cf3e312685U, 0xbe061a84bea657feU,
  0xbe919b503e8d3c36U, 0x3e8e5c9e3e69435fU, 0x3d172d013e6bf1f3U, 0x3eb3b00a3d9dedfeU,
  0x3e4b53edbe452703U, 0x3b90b8f5be91ef0aU, 0x3ea6dbbf3e6faa46U, 0x3e44b54f3dac4e2fU,
  0x3e7f8fb83a3ed5eaU, 0xbe49d3bdbe7c9133U, 0x3d993008bc4b89ebU, 0xbe36a5253e7d2693U,
  0xbea36920bda296e3U, 0xbe1bfb1ebdf76591U, 0x3e445dd63e9f928eU, 0xbe885707bd0e378aU,
  0xbea809343e521742U, 0xbe16db16beb84178U, 0x3da89fd0bd5dd8ceU, 0xbdc31630be22e448U,
  0x3e121968be9c0ac3U, 0x3e676764bddaf791U, 0xbe72c77b3e5edb94U, 0xbe1377223ea751ceU,
  0xbeb754eabe9e8fa9U, 0x3d586e2fbe114e90U, 0xbe41d209bdb590d6U, 0xbea143793d02d99bU,
  0x3e8d08e0bd253f40U, 0x3e24c5643e81ece5U, 0xbe83dccfbe984208U, 0xbec03d153a1f4761U,
  0x3dcafc563e84c2a6U, 0x3e6f618e3dded6eaU, 0xbea3a7d0be112261U, 0xbdfcb609be68a4a2U,
  0x3e8283ecbe29bd76U, 0xbe8855b0be333d44U, 0xbe0473523e9c2e00U, 0xbe25be46be31fcbfU,
  0xbd77fb673d4c193bU, 0xbbdb1a14bec396c1U, 0x3e100252bd343762U, 0x3e87e2243e6b8afaU,
  0x3d6da4533e05b7caU, 0x3e3773cdbe536738U, 0x3d0688fb3c6f356eU, 0x3d48f76abe92b812U,
  0x3ea044033d605a88U, 0xbe9683253db80d58U, 0xbd9e16163d20fd97U, 0x3e8222b93d92e9deU,
  0xbe824ad7be31c504U, 0xbc7446f93e43ce00U, 0x3e98de663e70cb49U, 0xbe19e710bdcff0b3U,
  0x3e4e97173e4fe4c2U, 0xbd972ef3be67802eU, 0x3b8fa41bbdfe6c43U, 0xbe72c5a13ddace5cU,
  0xbd026d92bd607d88U, 0xbe8d1e3dbdee8791U, 0xbe23a6713d02d7daU, 0x3e919c30bebe1073U,
  0x3e63c9083dcadedfU, 0xbc3c203c3e80105fU, 0x3eb11a6f3e678deeU, 0xbdb796633e348771U,
  0x3e213f933eb224d7U, 0xbe788bedbe269340U, 0xbd1d3fae3e8288e0U, 0xbe09fff3bc6fda40U,
  0xbe8ae79d3dece6c2U, 0x3e928bb93dab1f4cU, 0x3e19dbf1be8df3fdU, 0x3e8edd03be521561U,
  0x3daa10323dc629baU, 0xbe0908afbea9d183U, 0xbe0919813e6e452bU, 0xbe624e79bd8a61f8U,
  0xbd07cb873ea8f4e9U, 0x3e8436913e17eb49U, 0xbea4c1fe3e296ed6U, 0xbd8bb02d3d4e68e4U,
  0xbea19e2cbe880ae4U, 0x3e9c6827bc1b884aU, 0x3e2266d0be80e049U, 0xbea973be3df794e2U,
  0x3eae13e0bd3a5e92U, 0x3e2dd7c53e8e5580U, 0x3e356b4e3d1aeb5cU, 0xbdba9e9a3d97b38fU,
  0xbd886739beb17952U, 0xbebf01dcbe50d6dcU, 0xbe8b59e1bd9b0458U, 0x3cdba696bbfc251bU,
  0xbe80c582bd1f52d1U, 0xbd2ad9ab3e947981U, 0x3d9e78f1be488decU, 0xbe10a5a5be15bc28U,
  0xbeb623f03e5beda1U, 0x3e41e2883e6346feU, 0xbe8fc792be10f9fcU, 0xbe01161e3de08938U,
  0x3e1c055bbe92d344U, 0x3d7df6af3d83cf07U, 0x3e77123fbe50d30bU, 0x3d25e3c2bd979a4eU,
  0xbeb1742a3d186849U, 0x3e8e1058bddf5ae8U, 0xbdfdb5bcbeacbfdfU, 0x3ea698ad3e920831U,
  0x3db65744bdcd38b8U, 0xbe0ea33a3eb4ba13U, 0x3e52e244be9f28d2U, 0xbe00ab86bdca3dadU,
  0xbe6878dfbe25b716U, 0x3e5792fdbe963068U, 0xbe1440d6be3c6099U, 0xbe1fafdd3e4f9d9eU,
  0xbe0e69febd8fdeebU, 0xbd04370f3e836f6eU, 0xbd6ff70ebe64987fU, 0xbe7e1799bd438927U,
  0x3ea0e8813e76e206U, 0x3e782a53bdbf7e24U, 0x3e603cdcbe122fd4U, 0xbe2a596d3de65a3cU,
  0x3e74bcadbe3650c0U, 0xbe1bbf633e4aa287U, 0x3dcc8f823c1e79dcU, 0xbc8b218bbe80d9acU,
  0x3e28aabd3e7ddebbU, 0xbd1f0860be81b09bU, 0x3e929193be6afae6U, 0xbe82626a3eaaa3b2U,
  0x3e4cf73a3e349f55U, 0xbde666e43e4a5d4fU, 0xbe19a90d3e8a1e68U, 0xbdf42c7fbe02360aU,
  0x3e59e67cbc2979faU, 0x3ea325ee3eac811aU, 0xbcddc0b53e2abed7U, 0xbdbd04f0be99c23aU,
  0x3e832da93e9e208cU, 0x3d00960d3e807d9dU, 0x3bdf3d97be9c28bfU, 0xbe6e0d08be14246aU,
  0x3e7ca9b03de0631cU, 0x3c3b8aa9be82bb42U, 0xbe42a5a53e533b6dU, 0xbeaec8503dfe4cabU,
  0x3e33c1bebdf8d13cU, 0x3e99e9c6be632f43U, 0xbd4130cdbe2d38adU, 0x3e4103ed3e614433U,
  0x3eb68aad3e1a371dU, 0x3de15d583e4c9b87U, 0x3e4f45fdbd6b5759U, 0xbe9c59103e07c2e0U,
  0xbe24d003bdc917ffU, 0xbdbfdaef3e8c705aU, 0x3c33bab83e53fc78U, 0xbe0bb027bd3f9e35U,
  0xbd651d5d3e891377U, 0x3e8e8fa63e765deeU, 0xbe7b8f47bda27089U, 0xbe0b2d39bea09812U,
  0x3dda015b3d67e2d1U, 0x3e11d56abc8b5495U, 0x3d8c33653d1b174cU, 0x3dc426b63d3d98f1U,
  0x3de334c43d6cf641U, 0x3ab2bf403d726963U, 0x3d8a8a083e0a259aU, 0x3db1fb953d509cdcU,
  0x3e2da3a03d59926cU, 0x3d8b21d13d97017cU, 0x3d4defbfbd3e2766U, 0x3d79fabf3dda8a2cU,
  0x3d78468a3d767287U, 0x3d5292923d2d39efU, 0x3db4507ebd09bedeU, 0x3da98b253d47369aU,
  0x3d7b31eb3d5b2a6fU, 0x3daaa733bc926206U, 0x3ddefd1c3dd755fcU, 0x3d88661e3db092d8U,
  0x3d9ed54b3dbf3cc6U, 0xbcf8cb293d180db8U, 0x3e0b80d23d1a182fU, 0xbd8fb1673db98fe5U,
  0x3c58d4d43e0c3b9cU, 0x3e0412f93d78e844U, 0x3d44e8f93dc0dc20U, 0x3da63b8c3d2816a1U,
  0x3db3d232bd31a7bfU, 0x3c6aaf7b3de8f6e8U, 0xbbcd4a633de1ca6aU, 0x3c65fbd13da85dc9U,
  0x3e036aaf3deb70b4U, 0x3d5e26bd3d2a9c24U, 0x3ccc242b3d95c9c0U, 0xbcdcf9d03d9d5596U,
  0x3da4edc83dd7e6f7U, 0x3dfd87dcbb3b1d07U, 0x3d1cf8c53d4da1bdU, 0x3dd826383cd26e5aU,
  0xbd93eadc3d70c9e3U, 0x3d2a11133d1d259aU, 0x3d8eba503de42afdU, 0xbb8056653d32243bU,
  0x3dc0457c3c541bd3U, 0x3d18bb643d9dec97U, 0xbc373f613d3847c5U, 0x3cb710233d8c5828U,
  0x3c8cd69e3c750addU, 0x3d1f81c43ce07767U, 0x3d1b1b503dff5bd1U, 0x3d294c0b3dba9009U,
  0x3d233527bcba88c4U, 0x3dc4e53a3dbda0b7U, 0x3d36e4b43d878e26U, 0x3d129edd3df6014fU,
  0xbd4d550f3dac315fU, 0x3dcfb88e3dd2bae4U, 0x3d04799e3d741bdbU, 0x3cac395d3ddff687U,
  0x3cfdb0933d473093U, 0x3d8111623d3e0dd2U, 0x3d330dc23ccfa73eU, 0x3d718bcb3d60296bU,
  0xbc2d5b1abdd006ecU, 0xbdea07ca3da05aabU, 0xbdba5b8900000000U, 0x3cbeb1033d7b5db3U,
  0xbd2d5b1abb0aaf48U, 0x3cad5b1a3dba5b89U, 0x3e3c86463c8aaf48U, 0x3df2b2bebb8aaf48U,
  0x3dcbb172be3eb103U, 0xbd935a3d3e3830ccU, 0x3db6060f3e31b094U, 0x3e708801be3830ccU,
  0x3e33db51bd72b2beU, 0x3dc3067dbd3eb103U, 0xbe67dd0cbc2d5b1aU, 0x3dd45c66bcbeb103U,
  0xbda905a03e1c0531U, 0x3e45313a3d72b2beU, 0x3e708801bd935a3dU, 0x3e3830ccbd72b2beU,
  0xbd72b2be3e72b2beU, 0xbe43067dbd475bf8U, 0xbddd075bbcad5b1aU, 0xbdc3067d3e842f11U,
  0xbdbeb1033e5adc9eU, 0x3df708383de15cd5U, 0x3e0cda053dd45c66U, 0xbd3eb1033e112f7fU,
  0x3d135a3d3dc3067dU, 0x3e020454bc0aaf48U, 0x3d58b1e13e615cd5U, 0x3e5adc9ebe7b5db3U,
  0xbd8659cebe45313aU, 0x3d24b0263e0f04c2U, 0x3d36060f3b0aaf48U, 0xbd3eb1033dc3067dU,
  0xbe2f85d7bd0aaf48U, 0xbd1c0531bdf2b2beU, 0xbdad5b1a3d8659ceU, 0xbe2f85d7bd2d5b1aU,
  0xbd8659cebe638792U, 0xbd9c0531be40dbc0U, 0xbd72b2bebd8f04c2U, 0x3da905a03d8aaf48U,
  0xbd9c0531bdfb5db3U, 0xbcad5b1a3dc3067dU, 0xbd8204543ce15cd5U, 0xbc72b2be3e615cd5U,
  0x3db6060fbcad5b1aU, 0x3cd006ecbe568723U, 0xbd8204543e08848bU, 0xbdee5d44bda905a0U,
  0xbe7708383e112f7fU, 0x3de15cd5be112f7fU, 0xbd1c05313e1584faU, 0x3e40dbc03dd006ecU,
  0x3e33db51U, 0x3e19da74be67dd0cU, 0xbe2d5b1abe615cd5U, 0x3c2d5b1abd475bf8U,
  0xbe3a5b893e43067dU, 0x3cf2b2bebd2d5b1aU, 0x3c2d5b1a3dbeb103U, 0xbb0aaf483e8999e9U,
  0x3de79ceebe794746U, 0x3e38815abdc83536U, 0xbb7b3dc1bd9d0699U, 0x3e0d52bd3e3e64ccU,
  0x3d818bd83e1efd14U, 0xbe28cd7e3e30a76cU, 0xbd0578cf3d349463U, 0xbd9d06993d0d52bdU,
  0xbd4c222d3d0578cfU, 0x3bbc6e51bcbc6e51U, 0x3d63aff7bd24e087U, 0xbd3c6e513e55f296U,
  0x3e018bd83dfb3dc1U, 0x3da0f3903dd00f24U, 0xbd4c222dbdbc6e51U, 0x3e3e64ccbd9d0699U,
  0x3dacba75bc9d0699U, 0xbe7947463e0f4938U, 0x3d0578cf3e2eb0f0U, 0x3e716d58bcacba75U,
  0x3d818bd83e0f4938U, 0x3e7947463e755a4fU, 0x3c3c6e51bc5bd609U, 0x3c1d0699bcdbd609U,
  0x3e55f2963ddbd609U, 0x3d8d52bd3deb89e5U, 0xbd9d0699bdeb89e5U, 0x3e1b101d3e4a2bb1U,
  0x3d63aff73e038253U, 0xbda0f390bd44483fU, 0xbd5bd6093d349463U, 0x3e52059f3d152cabU,
  0x3d0d52bdbcdbd609U, 0xbd2cba75bd152cabU, 0x3e4c222dbd913fb4U, 0x3dc05b48bd952cabU,
  0xbde3aff7bc8d52bdU, 0x3c7b3dc1bdacba75U, 0x3e368adebe2cba75U, 0x3deb89e53e5dcc85U,
  0x3dd3fc1bbda4e087U, 0x3dd3fc1b3e26d702U, 0x3df750ca3df363d3U, 0xbdeb89e53cdbd609U,
  0x3c9d06993e7363d3U, 0x3deb89e53c9d0699U, 0x3e26d702bceb89e5U, 0x3e1efd143d1d0699U,
  0x3d7363d3bcacba75U, 0x3da0f3903e4a2bb1U, 0xbd5bd6093da4e087U, 0xbda4e0873cdbd609U,
  0xbd8578cfbcacba75U, 0x3dbc6e513deb89e5U, 0x3e1919a2bddfc300U, 0xbd349463bd7363d3U,
  0x3da8cd7ebe7363d3U, 0x3dacba75bbfb3dc1U, 0x3d152cabbd4c222dU, 0x3d952cab3dfb3dc1U,
  0x3dd00f24bd63aff7U, 0x3e6d80613d349463U, 0xbbfb3dc1be22ea0bU, 0x3db8815abe0578cfU,
  0xbda58265bd66b5c2U, 0xbe0266bcbe2d0852U, 0xbc70bda9be9a3981U, 0x3d66b5c2be461c13U,
  0xbc207e71be0c6ea3U, 0xbd489e0d3c207e71U, 0xbd876aaf3e13f490U, 0xbd207e71bdaa8658U,
  0x3d3e9626bd489e0dU, 0x3d8c6ea3bc489e0dU, 0xbc8c6ea33e18f884U, 0xbe1dfc77bbf0bda9U,
  0xbd7ac591bd66b5c2U, 0xbe9b7a7d3e23006bU, 0xbdffc984bd9b7a7dU, 0xbe18f8843daf8a4cU,
  0xbddcaddbbd2a8658U, 0x3e5f2fd53c8c6ea3U, 0xbba07e71bd348e3fU, 0x3c70bda93da07e71U,
  0xbe8266bcbe461c13U, 0xbd207e71bcf0bda9U, 0x3e66b5c23d876aafU, 0xbdebb9b63d876aafU,
  0xbe207e71bcf0bda9U, 0x3ba07e713bf0bda9U, 0xbda58265bd16768aU, 0xbd8c6ea300000000U,
  0x3cb48e3f3e18f884U, 0xbdcda2013d16768aU, 0xbdf5c19d3d9b7a7dU, 0x3dfac5913da07e71U,
  0x3debb9b63df5c19dU, 0xbe461c133daf8a4cU, 0xbe70bda93e076aafU, 0xbe84e8b63e207e71U,
  0x3d489e0dbd7ac591U, 0x3ddcaddbbe5a2be2U, 0xbdaa86583e320c45U, 0x3de1b1cfbe2a8658U,
  0x3cb48e3f3dfac591U, 0x3d7ac5913d917296U, 0x3c207e71bd348e3fU, 0xbd96768a3d66b5c2U,
  0x3de1b1cfbe2d0852U, 0xbdcda2013d2a8658U, 0x3d5caddb3d489e0dU, 0xbe348e3fbe8266bcU,
  0xbe9f3d743dffc984U, 0x3e28045e3e2d0852U, 0x3e2582653df0bda9U, 0xbd9172963cf0bda9U,
  0xbd16768abcf0bda9U, 0xbd2a86583e348e3fU, 0x3c489e0dbdbe9626U, 0xbe96768a3b207e71U,
  0xbe348e3f3e8b2da6U, 0xbd207e713d96768aU, 0xbcb48e3f3e2a8658U, 0xbd2a8658be207e71U,
  0xbd16768a3c8c6ea3U, 0xbe8dafa0be117296U, 0xbe0c6ea33e28045eU, 0x3d348e3f3df0bda9U,
  0x3d6b300abe08a9c1U, 0x3c31fad73c188dddU, 0x3d057c21bd2b9f99U, 0x3df18b483db52876U,
  0xbdf18b48bca5445aU, 0x3df4b8e8bdb52876U, 0x3dce95713dd81e4eU, 0x3c4b67d13d8f04ffU,
  0x3ccb67d1be49d102U, 0xbd64d4cbbdee5da9U, 0x3d88a9c13d385616U, 0xbe3d1a85be450c93U,
  0x3dde798d3e08a9c1U, 0xbe3b83b5bdb85616U, 0xbe31fad73d450c93U, 0x3d0bd7603dbb83b5U,
  0xbc31fad73e0d6e2fU, 0xbdeb300abc31fad7U, 0xbe0a40903dd1c310U, 0x3d95603ebe352876U,
  0xbacb67d1bd88a9c1U, 0x3e15603ebe404824U, 0xbc188dddbe36bf46U, 0x3deb300a3ccb67d1U,
  0xbdb1fad7be2b9f99U, 0x3d8f04ff3d6b300aU, 0x3dd81e4e3daecd38U, 0x3d8bd760bbcb67d1U,
  0xbe41def33c31fad7U, 0x3e12329e3d9bbb7cU, 0xbd1ee91bbe306407U, 0xbe3391a7bd2b9f99U,
  0x3c188ddd3e12329eU, 0xbddb4bee3da871f9U, 0xbe0bd760bd8f04ffU, 0xbbcb67d13d95603eU,
  0xbe2b9f99bd3eb154U, 0x3bfe41c63dab9f99U, 0x3d88a9c1bcbeb154U, 0x3df7e6873dfe41c6U,
  0xbacb67d1bda216bbU, 0x3d5e798dbd6b300aU, 0xbe404824bd12329eU, 0x3d3eb154be31fad7U,
  0x3d3eb1543c4b67d1U, 0x3e109bcfbd12329eU, 0xbd4b67d13d385616U, 0xbb988dddbe4375c3U,
  0xbdf4b8e83c188dddU, 0xbe0f04ffbe15603eU, 0xbcfe41c6be2ecd38U, 0x3d057c213d88a9c1U,
  0xbd2b9f99bdd4f0afU, 0x3e0d6e2fbb4b67d1U, 0xbe3eb1543d92329eU, 0xbde4d4cbbd77e687U,
  0xbd9ee91bbdb1fad7U, 0x3e08a9c1bcf18b48U, 0x3d718b48be0bd760U, 0xbdd4f0af3d88a9c1U,
  0x3d92329ebd8bd760U, 0xbc7e41c6bdd81e4eU, 0xbc988ddd3d9ee91bU, 0xbe483a32be4375c3U,
  0x3e7bf0fe3e035aa3U, 0xbd8133623b89d068U, 0xbe09d068bdb4e189U, 0xbcceb89c3db09306U,
  0x3df57b3a3e309306U, 0xbe0bf7aa3d1b0a75U, 0xbbceb89cbda7f5ffU, 0x3dac44823b89d068U,
  0x3e23a77c3d1b0a75U, 0x3dd307203e18e334U, 0x3e126d6fbd09d068U, 0x3d9b0a753cbd7e8fU,
  0x3cceb89cbc09d068U, 0x3d3d7e8f3e79c9bdU, 0x3de4412dbe32ba47U, 0xbe3fa5d1be712cb6U,
  0x3ddff2a93db4e189U, 0x3d9b0a753e2e6bc4U, 0xbe88bcc73e2e6bc4U, 0xbd8133623df9c9bdU,
  0x3db4e189bd2c4482U, 0x3d5ff2a9bdb09306U, 0x3d3d7e8f3cac4482U, 0x3e3093063d34e189U,
  0x3cac44823c4eb89cU, 0xbc712cb63e18e334U, 0xbd8e1eeb3e126d6fU, 0xbe2a1d41bdd755a3U,
  0xbe32ba473c9b0a75U, 0x3e1494b0be79c9bdU, 0xbe39300cbe0bf7aaU, 0xbd4eb89c3d79c9bdU,
  0x3e79c9bd3cbd7e8fU, 0x3dfe1840be1f58f8U, 0x3d4eb89c3e035aa3U, 0x3d89d0683dca6a19U,
  0x3e4c915b3e013362U, 0xbd96bbf23e09d068U, 0xbb09d068be25cebdU, 0xbe21803a3dd30720U,
  0xbdb09306bd5755a3U, 0xbcbd7e8f3d96bbf2U, 0x3e4eb89c3e32ba47U, 0x3e25cebd3e0bf7aaU,
  0x3db093063c09d068U, 0x3c89d0683e4842d7U, 0xbd813362bd96bbf2U, 0xbe461b96be0e1eebU,
  0x3e757b3abc2c4482U, 0x3cbd7e8f3e1494b0U, 0xbd89d068be27f5ffU, 0x3e4c915bbd813362U,
  0xbd461b96bdb09306U, 0x3db093063df57b3aU, 0xbe1f58f83e530720U, 0xbd5ff2a9be0bf7aaU,
  0x3c09d068bd23a77cU, 0x3e27f5ffbcceb89cU, 0x3d926d6f3e8581e5U, 0xbcbd7e8fbd8e1eebU,
  0x3de88fb03d4eb89cU, 0xbe3fa5d13e5ff2a9U, 0xbe5ba426bbceb89cU, 0xbd712cb63df9c9bdU,
  0xbe17c8d8bdc5ac43U, 0x3de1e972be25e770U, 0x3df717543e45ac43U, 0x3de8f8bd3e738fafU,
  0xbe09aa413e4933e9U, 0xbdccbb8f3e17c8d8U, 0x3dbe9cf83e09aa41U, 0x3dc5ac433d296f15U,
  0xbebcd925be9d1451U, 0xbe7e26a03e296f15U, 0xbe575280be10b98dU, 0xbc8d31e7bc8d31e7U,
  0x3e06229c3e09aa41U, 0x3e97c8d83dfe26a0U, 0x3e3406073c8d31e7U, 0x3dccbb8fbd378dacU,
  0xbcc5ac433e845ec9U, 0xbe829af63dd3cadbU, 0x3e17c8d83d378dacU, 0x3db78dacbd296f15U,
  0x3be1e972bda25fcaU, 0xbda25fca3e25e770U, 0xbee0259f3da25fcaU, 0xbe378dac3dbe9cf8U,
  0x3dccbb8fbd8d31e7U, 0x3df00809bca96f15U, 0xbbe1e972bd944133U, 0x3cfe26a03cfe26a0U,
  0x3ce1e9723e09aa41U, 0x3da96f153e4cbb8fU, 0x3d9b507ebcfe26a0U, 0xbdd3cadbbc296f15U,
  0xbea5e770be09aa41U, 0xbde8f8bdbc8d31e7U, 0x3e42249e3df71754U, 0x3db07e61bc8d31e7U,
  0xbe4933e93e845ec9U, 0xbe10b98dbd1b507eU, 0x3e87e66ebdccbb8fU, 0x3e89aa413e960506U,
  0x3e3e9cf83d378dacU, 0x3c61e972bdb78dacU, 0x3e575280bd53cadbU, 0xbe53cadbbd378dacU,
  0xbdf008093d700809U, 0xbe10b98d3d61e972U, 0xbd45ac433e89aa41U, 0xbdd3cadb3e3e9cf8U,
  0x3df717543e225fcaU, 0xbe6c80633e3e9cf8U, 0x3e1441333d7e26a0U, 0xbe09aa41bebe9cf8U,
  0xbe029af6be144133U, 0x3e307e61be0d31e7U, 0x3da96f153db07e61U, 0x3de8f8bdbe45ac43U,
  0x3de8f8bdbe700809U, 0xbde1e972bc296f15U, 0xbcc5ac43be8ef5baU, 0xbddada263c61e972U,
  0xbe845ec9be944133U, 0xbd9b507e3d8d31e7U, 0x3e829af63c296f15U, 0xbd0d31e7bd86229cU,
  0xbd6071d73d2b0167U, 0xbd4b11aa3da05150U, 0xbe22fd56bdfb2a0fU, 0x3e6875e83d9af945U,
  0xbd35b17d3dfb2a0fU, 0xbdb5b17dbe9da54bU, 0xbceb21edbd95a13aU, 0x3e5315bb3d859918U,
  0x3e75d2043e6875e8U, 0x3e75d204be82ed13U, 0x3e4b11aa3d205150U, 0xbcab01673e0d9d29U,
  0xbe02ed133da05150U, 0xbd8599183e9af945U, 0x3c80410dbe4dbdb0U, 0x3d2051503d75d204U,
  0x3dfb2a0fbe4dbdb0U, 0x3e86ef1b3e7325feU, 0xbdbb0988bd95a13aU, 0xbda5a95bbda05150U,
  0xbdc061933cd5c1c0U, 0x3d2b0167be059918U, 0x3e330577bd55c1c0U, 0xbd80410dbd75d204U,
  0xbceb21edbde071d7U, 0xbe08451ebd15a13aU, 0xbe2b01673db5b17dU, 0x3dc06193be7325feU,
  0x3cab0167bbab0167U, 0x3cc06193be787e09U, 0x3d55c1c03e02ed13U, 0xbd4b11aa3d4b11aaU,
  0x3ea9ab643deb21edU, 0x3e0d9d29bdbb0988U, 0xbe25a95b3bab0167U, 0xbe08451e3e5069b5U,
  0x3e5b19ccbcd5c1c0U, 0x3e7079f83da05150U, 0x3db5b17dbcd5c1c0U, 0xbe3b09883dab0167U,
  0xbd8599183e7325feU, 0xbe3305773d2b0167U, 0xbd95a13a3e6875e8U, 0x3e819710bd406193U,
  0x3e3305773ceb21edU, 0xbe0d9d29bd2b0167U, 0x3e25a95bbe8d9d29U, 0x3d00410dbe35b17dU,
  0xbd15a13abb2b0167U, 0x3d95a13a3c00410dU, 0x3d95a13abd6071d7U, 0xbc80410d3e0d9d29U,
  0x3e844315bdd5c1c0U, 0x3dbb09883e385d83U, 0x3d00410d3e65c9e2U, 0x3e6875e83e406193U,
  0x3db05972U, 0x3e02ed133c80410dU, 0xbdbb09883e430d99U, 0xbd55c1c0be22fd56U,
  0x3e12f534bda05150U, 0xbe1af945bd90492fU, 0x3b2b01673e22fd56U, 0xbd80410dbe184d3fU,
  0xbbb7ea483da6ac51U, 0x3e0150babe1e0d56U, 0x3d8430633e408943U, 0xbc37ea48bdf1637eU,
  0x3e3da99abd20ecffU, 0xbd2c6ba33e0ccf5fU, 0xbd843063bdf722d0U, 0xbe68c4833d7ce222U,
  0xbbb7ea483d4ee791U, 0xbdf1637e3deba42cU, 0xbd20ecffbd4368ecU, 0xbd71637e3e0ccf5fU,
  0x3e128eb1be3ac9f1U, 0xbdeba42cbd4ee791U, 0xbe350a9e3dd4a6e3U, 0xbccee7913e744327U,
  0x3d37ea483df1637eU, 0x3e322af5bdc368ecU, 0x3d65e4d9bdb7ea48U, 0xbd20ecffbd71637eU,
  0x3da0ecff3da0ecffU, 0xbd20ecff3d09efb6U, 0xbe298bfabc37ea48U, 0xbe09efb63e630530U,
  0x3dcee7913da6ac51U, 0x3dc368ecbda6ac51U, 0x3d156e5a3e0ccf5fU, 0x3e4368ec3e1e0d56U,
  0xbd89efb6be043063U, 0xbd8faf083eb67a73U, 0xbc37ea483d20ecffU, 0x3d4368ec3e043063U,
  0xbd71637ebe3da99aU, 0xbd4ee7913e4ee791U, 0x3e184e03bd09efb6U, 0xbda6ac51bbb7ea48U,
  0xbdb22af5bdf722d0U, 0x3e4c07e73d843063U, 0xbe2c6ba33df1637eU, 0x3e8ccf5f3de5e4d9U,
  0xbe09efb63e07100dU, 0x3d37ea483e1e0d56U, 0x3e09efb63e0ccf5fU, 0x3d2c6ba33d89efb6U,
  0xbdf1637ebd20ecffU, 0x3ccee7913c37ea48U, 0x3db7ea483d65e4d9U, 0x3ca0ecff3ce5e4d9U,
  0xbd156e5abb37ea48U, 0xbdf722d0be37ea48U, 0x3e156e5a3e5a6635U, 0x3da6ac51be23cca8U,
  0xbccee7913d843063U, 0xbdc9283e3c09efb6U, 0x3e57868cbbb7ea48U, 0x3dbda99a3e322af5U,
  0xbe23cca83deba42cU, 0xbb37ea483db22af5U, 0x3e09efb6be156e5aU, 0xbca0ecff3e184e03U,
  0x3db7ea48bd4ee791U, 0x3dbda99a3da0ecffU, 0x3e51c73a3deba42cU, 0xbe0faf08bc37ea48U,
  0x3d87addabda99950U, 0x3bb4e7cdbe4e5866U, 0x3e8beb49be04da3bU, 0x3e23f2123e92fc57U,
  0x3e15cff63e59a6e3U, 0x3de7c8ffbd9e4ad3U, 0xbdd12c053d98a395U, 0x3da99950bd98a395U,
  0xbe9b77343d56d344U, 0x3e299950bc6221c0U, 0xbda3f212be15cff6U, 0xbe45dd883e4b84c7U,
  0xbdb4e7cd3e3a8f0cU, 0x3e37bb6cbd78bebaU, 0x3e23f2123b34e7cdU, 0xbd82069b3cf8bebaU,
  0xbddc7a823e6221c0U, 0xbe67c8ff3e02069bU, 0xbe34e7cd3dd12c05U, 0x3dba8f0cbe48b128U,
  0x3e0a8179bd82069bU, 0xbc9e4ad33dba8f0cU, 0xbeb37dfebd56d344U, 0xbd6d703d3d98a395U,
  0x3e15cff6bdd12c05U, 0xbdc0364abe32142eU, 0xbe12fc57bd40364aU, 0xbd12fc573c34e7cdU,
  0x3e40364abde7c8ffU, 0xbdf8beba3dd6d344U, 0xbdf3177cbeac6cefU, 0xbdf8beba3e512c05U,
  0x3de7c8ff3e3a8f0cU, 0x3e15cff6be3a8f0cU, 0xbd4b84c7bcf8bebaU, 0x3ddc7a823c34e7cdU,
  0x3e04da3bbd1e4ad3U, 0xbcf8beba3e6221c0U, 0xbce221c0be23f212U, 0xbd34e7cd3daf408fU,
  0x3e3d62ab3ce221c0U, 0xbe3d62ab3d1e4ad3U, 0x3d2999503e07addaU, 0x3c87adda3d56d344U,
  0x3d40364a3e0d5518U, 0x3e02069bbcf8bebaU, 0xbd2999503e2c6cefU, 0xbe07addabc07addaU,
  0x3d12fc573e40364aU, 0xbdba8f0c3e04da3bU, 0x3e73177c3c9e4ad3U, 0x3e15cff63e45dd88U,
  0x3ce221c0be0d5518U, 0x3cf8beba3c9e4ad3U, 0xbd87adda3d4b84c7U, 0x3df8bebabe9b7734U,
  0xbc9e4ad3be9a0d65U, 0x3e5f4e213dc5dd88U, 0xbdaf408f3d34e7cdU, 0xbe04da3b3dcb84c7U,
  0xbd1e4ad3be2f408fU, 0x3d87adda3dd6d344U, 0x3d78bebabe0d5518U, 0x3e45dd883d12fc57U,
  0xbc3723af3dabb174U, 0xbe2d99d3bcf42f94U, 0xbd55a9a1bddd4b1eU, 0x3af42f94bd858a05U,
  0x3cf42f94be2f8232U, 0x3e0b4322bd90fc40U, 0x3bb723af3bf42f94U, 0x3e222798be3af46dU,
  0xbc989dbc3e390c0eU, 0x3d858a05bd3723afU, 0x3dd5a9a1bda7e0b6U, 0x3da40ff7bc989dbcU,
  0x3b742f943dbec52bU, 0xbe4a3766be25f856U, 0xbdca37663d64ec9aU, 0xbe390c0ebcc666a8U,
  0xbe0b43223dec8e17U, 0x3c895ac3bb742f94U, 0x3d5d4b1ebd9c6e7bU, 0xbcd5a9a1bd55a9a1U,
  0xbddd4b1ebaf42f94U, 0xbe29c915bce4ec9aU, 0x3c895ac33bb723afU, 0x3c895ac3bde4ec9aU,
  0xbe2d99d33e058a05U, 0xbe724735bdca3766U, 0x3bb723afbde4ec9aU, 0xbce4ec9abd3723afU,
  0x3db352f0bd64ec9aU, 0xbc189dbcbe222798U, 0xbc989dbcbd7bd110U, 0x3dffa1cf3c55a9a1U,
  0xbdf800523d4e0825U, 0x3e240ff73c742f94U, 0x3dec8e173e1a861bU, 0xbd81b9463e203f39U,
  0x3e03a1a63dfbd110U, 0x3da7e0b63e5b62bfU, 0x3d3723afbd8d2b81U, 0x3da7e0b63de4ec9aU,
  0xbdbec52bbd01b946U, 0xbe353b503d858a05U, 0x3cc666a8bddd4b1eU, 0x3e077264bde8bd59U,
  0x3af42f943e3af46dU, 0x3d742f943e16b55dU, 0x3d94ccfebe3723afU, 0xbe0f13e13e0b4322U,
  0x3e1c6e7bbe077264U, 0xbbf42f94bde11bdcU, 0xbe0f13e1be484f07U, 0x3e1c6e7b3e3cdcccU,
  0xbde8bd593d55a9a1U, 0xbb742f943d94ccfeU, 0x3dec8e173e1c6e7bU, 0xbc989dbc3db723afU,
  0x3e29c915bd895ac3U, 0x3da03f393de4ec9aU, 0x3d742f94bbb723afU, 0x3cc666a8bd989dbcU,
  0xbe25f856bdc295eaU, 0x3d10fc40bdc295eaU, 0xbdca37663dd1d8e3U, 0xbcd5a9a13e12e49fU,
  0x3e3b5c71be66674dU, 0xbd4a8d74bddececcU, 0x3cca8d74bd92d9c1U, 0xbd03a8be3e68ef78U,
  0xbd54ae203cca8d74U, 0x3d68ef78be012093U, 0xbd92d9c13d03a8beU, 0x3e8774ffbdd9be76U,
  0xbe4d159f3e29a344U, 0x3e2eb39a3d17ea17U, 0xbd406cc73d220ac3U, 0xbe0120933b220ac3U,
  0x3d4a8d743ba20ac3U, 0x3e271b193c220ac3U, 0x3c8dc96bbddececcU, 0xbdf31024be0630e9U,
  0xbd83a8be3dca8d74U, 0xbe9561ec3e8774ffU, 0x3dca8d743e7d30d1U, 0xbcdececcbe364c1bU,
  0xbd5ececcbdd9be76U, 0x3d8dc96b3c220ac3U, 0xbdedffcebd68ef78U, 0x3d364c1bbd7d30d1U,
  0x3b220ac3be84ecd4U, 0xbb220ac3bdc57d1eU, 0x3d92d9c13ddececcU, 0xbd54ae203e220ac3U,
  0xbdbb5c71bd17ea17U, 0xbe3de49c3ca20ac3U, 0x3d83a8bebe29a344U, 0xbd7d30d13d9cfa6dU,
  0x3ddececcbd83a8beU, 0x3e271b19be6b77a3U, 0xbe0120933de3df22U, 0x3dd4ae20be6b77a3U,
  0x3de8ef78bcdececcU, 0xbe29a3443d92d9c1U, 0x3e3b5c71bc4a8d74U, 0xbcca8d743e29a344U,
  0x3e4805493e42f4f3U, 0x3d68ef783d83a8beU, 0x3e03a8be3e29a344U, 0xbbf310243d54ae20U,
  0x3d8dc96b3e12d9c1U, 0x3d5ececcbe29a344U, 0xbdbb5c713e220ac3U, 0x3d9cfa6d3e406cc7U,
  0x3e42f4f3bcca8d74U, 0xbbf310243e2492eeU, 0x3bf31024be8630e9U, 0x3e5ececc3e2492eeU,
  0xbc220ac3bdf31024U, 0xbda20ac3bde3df22U, 0x3da71b19bdc57d1eU, 0x3e3de49cbea0c6adU,
  0x3ea0c6adbe42f4f3U, 0x3e4805493d03a8beU, 0x3d364c1b3db13bc5U, 0xbe1cfa6d3d220ac3U,
  0x3d97ea173d220ac3U, 0x3db13bc5bb220ac3U, 0x3e0630e93c731024U, 0x3e83a8bebdf31024U,
  0xbd1a736fbd80b587U, 0xbd80b5873d96291eU, 0xbe252d3bbd343157U, 0x3dab9cb5bd67ad27U,
  0xbdb87ba93d343157U, 0x3df8d66cbe1ebdc1U, 0x3d9ebdc13e04ffd9U, 0xbe00b587bc2b9cb5U,
  0x3e78d66c3d96291eU, 0x3e04ffd93d00b587U, 0x3e2fe7063e477fc5U, 0xbe20e2e9bd9ebdc1U,
  0x3d894a2abe523991U, 0xbe387ba93dfd20beU, 0xbddf1884be02dab0U, 0xbdfd20be3d96291eU,
  0xbcbcc5fabe6bf778U, 0x3e5683e2be7266f2U, 0xbd8d947bbd00b587U, 0xbdbcc5fa3d80b587U,
  0xbe275263be81c81cU, 0x3d11decdbe5f1884U, 0x3e5014683da30812U, 0x3d91decd3c2b9cb5U,
  0xbb094a2a3e883796U, 0xbc2b9cb53dc55a9dU, 0xbdb87ba9bdb43157U, 0x3dafe706be872501U,
  0xbe4bca17bd455a9dU, 0xbdfd20be3e1403f5U, 0x3c4def3f3e6587feU, 0x3d5683e23e1a736fU,
  0x3e545eb93e11decdU, 0xbb894a2abd84ffd9U, 0xbe2308123d894a2aU, 0xbe387ba93e5ace33U,
  0x3d84ffd93dd23991U, 0x3dd683e2be00b587U, 0xbe04ffd93c9a736fU, 0xbd91decd3d84ffd9U,
  0xbccdef3f3d84ffd9U, 0xbc4def3fbd8d947bU, 0x3de362d6bbcdef3fU, 0x3cf041cabd84ffd9U,
  0x3e230812bd11decdU, 0x3cab9cb5bd00b587U, 0x3e02dab03b094a2aU, 0x3c094a2abe872501U,
  0xbde7ad27bd78d66cU, 0x3e00b5873e1403f5U, 0x3e252d3bbd9ebdc1U, 0x3d5f18843dc1104bU,
  0xbb894a2a3e501468U, 0x3e49a4ee3e04ffd9U, 0x3cbcc5fabdc1104bU, 0xbe0725013e3cc5faU,
  0xbe49a4ee3db43157U, 0x3e545eb9bd4def3fU, 0xbdbcc5fa3b094a2aU, 0xbbcdef3fbd91decdU,
  0x3e5f18843d96291eU, 0xbe29778c3d80b587U, 0xbd894a2a3d4def3fU, 0xbc9a736f3d343157U,
  0xbd96561fbe2e40eaU, 0xbd96561fbec7e10dU, 0xbe4d0113be3beba7U, 0xbd76014bbe2e40eaU,
  0xbe4996643c88ab62U, 0xbd81d604be8c1612U, 0xbe64ebde3d9d2b7eU, 0x3e16561f3dd3d672U,
  0x3e08ab623e94a0c8U, 0xbd3f5656bd3f5656U, 0x3ddaabd1bd76014bU, 0xbed8f679bd9d2b7eU,
  0xbdaad63bbdbf5656U, 0xbd96561f3e796bfaU, 0xbca400dcbd5aabd1U, 0xbe462bb53dcd0113U,
  0xbe3880f83d16561fU, 0x3e0540b33dbf5656U, 0xbe0540b3bbdaabd1U, 0xbea0962dbe0c1612U,
  0xbe16561fbbdaabd1U, 0xbd31ab99bdb1ab99U, 0xbb5aabd13e462bb5U, 0x3e01d604be462bb5U,
  0xbdfcd6a93e5aabd1U, 0x3dc62bb5bd5aabd1U, 0x3d68568ebe462bb5U, 0xbdaad63bbeb360f1U,
  0xbd9d2b7e3d5aabd1U, 0xbe6bc13dbd68568eU, 0x3e499664U, 0xbe1d2b7ebb5aabd1U,
  0x3d96561f3e351649U, 0x3e42c106be499664U, 0xbe5aabd13e08ab62U, 0xbe8dcb693b5aabd1U,
  0xbd31ab99be01d604U, 0x3e81d6043d9d2b7eU, 0x3da400dc3d8f80c1U, 0xbe351649bdef2becU,
  0xbdb1ab99bd16561fU, 0x3dd3d6723e3beba7U, 0x3db1ab993d9d2b7eU, 0x3dd3d672be64ebdeU,
  0xbd9d2b7ebd2400dcU, 0xbbdaabd1be19c0cfU, 0x3d96561fbd2400dcU, 0x3d68568ebdbf5656U,
  0x3ddaabd1bd4d0113U, 0x3e86f60b3e8c1612U, 0x3e20962d3cbf5656U, 0x3d4d01133dc62bb5U,
  0x3d2400dcbed06bc3U, 0xbd08ab623cf6014bU, 0xbdc62bb5bdb1ab99U, 0x3cbf56563e276b8cU,
  0x3dd3d6723cbf5656U, 0x3e19c0cf3d68568eU, 0x3d9d2b7e3bdaabd1U, 0x3d16561fbe574121U,
  0x3e9ee0d53e462bb5U, 0xbe88ab62bcf6014bU, 0x3c88ab62bd31ab99U, 0xbd8f80c13d76014bU,
  0x3d0353913ca1a1edU, 0x3e385cb23dd93197U, 0xbcb5d62b3d21a1edU, 0x3e6d65d43dd93197U,
  0xbe1c94debd7272e4U, 0x3dcf17783e21a1edU, 0xbcca0a68be4c90f0U, 0x3df77ff3bc8d6dafU,
  0xbd9787cebbf272e4U, 0xbe1a0e56be242875U, 0x3d0353913dbae33aU, 0xbe30c91b3e1f1b65U,
  0xbd5e3ea63e89a3e4U, 0x3d3ff0493d3ff049U, 0x3e0d6dafbdb0c91bU, 0x3da6aefc3e035391U,
  0x3e150147bca1a1edU, 0xbdd42487bcca0a68U, 0x3da6aefc3e593197U, 0x3e74f96bbdabbc0cU,
  0x3bf272e4bdca0a68U, 0x3e6adf4c3e00cd09U, 0xbea05ea9bd8d6dafU, 0xbe2428753dfc8d02U,
  0x3e26aefcbcde3ea6U, 0xbd7272e4be150147U, 0xbcf272e4bd6858c5U, 0xbe4783e13da6aefcU,
  0x3e242875bdd93197U, 0x3bf272e43e4f1778U, 0xbb21a1edbda1a1edU, 0x3e26aefc3e35d62bU,
  0xbe927abf3d6858c5U, 0xbd6858c5bc21a1edU, 0x3e05da18be334fa3U, 0x3d7c8d02bd0d6dafU,
  0xbdbae33a3e35d62bU, 0xbd9c94debd835391U, 0x3dd42487be91377bU, 0x3e0d6daf3e93be03U,
  0xbdde3ea63dc4fd59U, 0xbe05da183e1787ceU, 0xbd3ff0493df77ff3U, 0x3d8860a0bba1a1edU,
  0x3d7272e43dd93197U, 0xbe1f1b653cde3ea6U, 0xbd9787ce3e4a0a68U, 0xbdcf17783d8d6dafU,
  0xbdbae33a3c8d6dafU, 0xbda1a1edbd542487U, 0x3cde3ea6bde34bb5U, 0xbe7272e4be0ae728U,
  0xbd927abf3d1787ceU, 0xbd21a1edbe150147U, 0x3e05da183cf272e4U, 0xbd9c94debc4a0a68U,
  0x3e0ff437be7a067bU, 0xbc4a0a683d542487U, 0x3e385cb2bdca0a68U, 0xbdbff049bd5e3ea6U,
  0xbcf272e4bd6858c5U, 0x3dbae33abe00cd09U, 0x3d8353913dca0a68U, 0x3e4783e1bb21a1edU,
  0xbe0f83493e382cc0U, 0x3e30ffc9bc659edbU, 0x3e1ddd373c191492U, 0xbddc0d923e33641bU,
  0x3e30ffc9be33641bU, 0xbc3f59b7bcbf59b7U, 0x3d8f83493e60d637U, 0x3e22a5db3e16b040U,
  0xbd48eb00bd944beeU, 0xbe1b78e53e191492U, 0x3b9914923e1ddd37U, 0x3e8856523d0f8349U,
  0x3c9914923b191492U, 0xbd85f2003b191492U, 0x3cbf59b73da76e80U, 0x3cf8c16ebbe59edbU,
  0x3e41be093e3f59b7U, 0xbd8f8349bd659edbU, 0x3e038daebde59edbU, 0x3c3f59b7bcd27c49U,
  0x3cd27c49U, 0x3d6f30253cf8c16eU, 0xbdb0ffc9bcd27c49U, 0xbdc8eb003e0d1ef7U,
  0x3e44225bbdac3725U, 0x3cac37253e97e269U, 0xbd9ddd373e382cc0U, 0x3e250a2ebd8f8349U,
  0xbdac37253d78c16eU, 0x3e33641bbcf8c16eU, 0x3dba9112bc659edbU, 0xbd8abaa5bde59edbU,
  0xbdc8eb00be05f200U, 0xbe11e79b3dcdb3a5U, 0x3e5e71e53cac3725U, 0xbdac37253e54e09bU,
  0xbcac37253df8c16eU, 0x3e05f200bd944beeU, 0x3dac3725bd527c49U, 0xbde59edbbe0d1ef7U,
  0x3dd27c493d85f200U, 0xbd191492be01295bU, 0xbe191492bdbf59b7U, 0x3c1914923d48eb00U,
  0x3df8c16e3d191492U, 0x3e8d1ef73e8f8349U, 0x3dea6780bc85f200U, 0x3e01295b3e3f59b7U,
  0xbe1914923d3f59b7U, 0xbd05f2003dc8eb00U, 0x3d35c86e3e35c86eU, 0xbc659edbbd9ddd37U,
  0xbdf3f8c93e5e71e5U, 0xbd81295bbc991492U, 0x3d78c16e3d8f8349U, 0x3dbf59b73e4686aeU,
  0xbd8f83493dc4225bU, 0xbd3f59b7bdac3725U, 0xbd0f83493c85f200U, 0xbd78c16e3c3f59b7U,
  0xbd8f8349bdc4225bU, 0x3d1914923cbf59b7U, 0x3e4b4f523e0abaa5U, 0x3d9ddd37bd5c0d92U,
  0x3dd1d1063ced2f12U, 0x3dbb02a7bcff6dc5U, 0xbddf800c3d968542U, 0xbe61c7e33c3672faU,
  0x3e3b02a7bdfade18U, 0x3da434483e08d63cU, 0xbe18cd183d968542U, 0xbd6d2f123cc8b1adU,
  0x3dc8b1ad3d764e6cU, 0xbd1b14eebd3672faU, 0xbe0fadbf3ced2f12U, 0xbd08d63cbe58a889U,
  0x3e0d65e8be48b1adU, 0xbd1b14eebe7d25efU, 0xbe8b1e12bd3672faU, 0x3e0b1e123dd660b3U,
  0x3ddaf0603cff6dc5U, 0x3bdaf0603e1b14eeU, 0x3d88d63cbe41da2aU, 0x3cff6dc53d7f6dc5U,
  0x3dff6dc53e08d63cU, 0x3e4d415abd11f595U, 0x3e3672fabe01feb9U, 0x3d9685423dcd415aU,
  0x3da8c3f43c5af060U, 0xbdbf92543e5d3836U, 0x3e1685423e764e6cU, 0xbbdaf0603d764e6cU,
  0xbd3672fabe0fadbfU, 0x3e28c3f43e28c3f4U, 0xbd11f595bc11f595U, 0xbdb672fabe7f6dc5U,
  0xbe764e6cbe3672faU, 0x3e38bad13e51d106U, 0xbd2434483d640fb9U, 0xbe068e653e1b14eeU,
  0xbced2f123c11f595U, 0x3e21ec71bdf1bebfU, 0x3d08d63c3e7ade18U, 0xbdc8b1adbd640fb9U,
  0xbe01feb9be8fadbfU, 0x3dad53a1bd9b14eeU, 0xbe068e65be1b14eeU, 0x3d9b14ee3cdaf060U,
  0x3e21ec713e3b02a7U, 0x3e1fa49bbd5af060U, 0x3df64e6cbb91f595U, 0x3e3672fa3cff6dc5U,
  0xbe143d6bbe90d1aaU, 0xbd08d63cbe2b0bcbU, 0xbced2f123bdaf060U, 0x3d243448bc3672faU,
  0xbd08d63cbdb1e34eU, 0x3e7ade18be66578fU, 0xbbdaf0603da8c3f4U, 0xbd2434483e3f9254U,
  0xbd6d2f12bdbb02a7U, 0xbe41da2abe0fadbfU, 0xbd11f5953cc8b1adU, 0x3e2d53a13dbf9254U,
  0x3dbf92543da8c3f4U, 0xbbdaf0603d9b14eeU, 0x3e4af983be1fa49bU, 0xbe143d6b3d9b14eeU,
  0xbe7537a8bd2b14f8U, 0x3e7537a83d144560U, 0x3b367cc43d4d4c5dU, 0x3c08dd933d88dd93U,
  0x3c88dd933e6ca9cfU, 0x3dc798773bb67cc4U, 0xbdf537a83df537a8U, 0xbd1445603ea83b05U,
  0x3e5026503cfaeb8eU, 0xbe08dd93bd9fad2cU, 0x3d99f9463db67cc4U, 0xbb367cc43e1fad2cU,
  0x3e66f5e93e0329adU, 0x3e1cd339bdfaeb8eU, 0x3e08dd93bdc79877U, 0xbd1fad2c3e8e9179U,
  0x3dc798773e171f53U, 0x3e0bb786be30c8deU, 0xbc9fad2c3d944560U, 0x3d4d4c5d3e614202U,
  0x3e0603a03e2b14f8U, 0xbe69cfdc3ccd4c5dU, 0x3d7aeb8ebd08dd93U, 0xbe69cfdc3e55da36U,
  0xbd641bf53e4a726aU, 0x3eb50fcb3dfaeb8eU, 0x3e1fad2cbe1cd339U, 0xbdc79877bdc1e491U,
  0x3e69cfdc3e479877U, 0x3d41e4913ea3f418U, 0xbb367cc43d99f946U, 0x3e3c30abbccd4c5dU,
  0x3d99f946bdd30043U, 0xbe14456000000000U, 0x3d8329adbe367cc4U, 0x3def83c23e58b429U,
  0xbe3f0a9ebd6f83c2U, 0xbc367cc4bdc79877U, 0xbe4d4c5d3e2deeebU, 0x3e19f9463dd8b429U,
  0xbe283b05bdd8b429U, 0x3eb3a2d1bd41e491U, 0x3e3c30ab3bb67cc4U, 0x3d58b4293e4d4c5dU,
  0xbd4d4c5dbe2b14f8U, 0x3e0329adbd1fad2cU, 0xbd41e4913e0603a0U, 0x3dc79877bd58b429U,
  0xbbb67cc4bce41bf5U, 0x3d9fad2cbdbc30abU, 0x3d9445603e88dd93U, 0xbdbc30ab3bb67cc4U,
  0xbdde680fbde9cfdcU, 0xbda56112bd641bf5U, 0xbd8329adbe69cfdcU, 0x3c9fad2cbc88dd93U,
  0xbea2871f3d1fad2cU, 0xbe4a726a3e66f5e9U, 0x3c08dd93bb367cc4U, 0xbc88dd93bd88dd93U,
  0x3c367cc43cb67cc4U, 0xbd944560be479877U, 0x3e1cd339bda56112U, 0x3db67cc4bd8e9179U,
  0x3e3c1d6f3e27f5b6U, 0xbd8f53613e4bca8eU, 0x3d71dcb4be1f0080U, 0x3cfad1eabdaa3303U,
  0xbde46ce3bdb7a2d4U, 0xbd0f5361be3e5abdU, 0x3e5db4fa3e160b4aU, 0x3dc512a5bd2a3303U,
  0x3c56fd123dc98d41U, 0x3ddb77ad3db32839U, 0x3d3328393c8f5361U, 0xbd68e77ebc0f5361U,
  0x3d8ad8c63cb32839U, 0xbc332839be332839U, 0xbe0f53613dbc1d6fU, 0xbd68e77e00000000U,
  0x3e37a2d4bdf1dcb4U, 0xbcc512a53db32839U, 0xbb0f53613daead9eU, 0xbca13dcdbbd6fd12U,
  0xbe40980abdc0980aU, 0xbe237b1b3d71dcb4U, 0x3e27f5b63d2a3303U, 0x3d4e07dcbc0f5361U,
  0x3d71dcb4bd2a3303U, 0xbe8e34ba3db7a2d4U, 0x3e13cdfcbd81e390U, 0x3dce07dc3df6574fU,
  0xbe528277be5ff248U, 0xbd8f5361be646ce3U, 0x3d3c1d6fbd065e2bU, 0xbe01e390be0d1614U,
  0x3d8f53613e089b79U, 0x3d81e3903db7a2d4U, 0x3db7a2d43d2a3303U, 0xbd3328393d065e2bU,
  0xbdb7a2d4be1cc332U, 0x3e2c70513e3e5abdU, 0xbe30eaecbe065e2bU, 0xbdbc1d6f3cc512a5U,
  0xbe81e3903d065e2bU, 0xbe54bfc4bd213dcdU, 0x3cd6fd123d93cdfcU, 0xbd56fd123d9cc332U,
  0x3c8f5361bd065e2bU, 0x3df6574f3dc98d41U, 0xbd93cdfc3d984897U, 0x3dff4c85bdd28277U,
  0x3ce8e77e3d865e2bU, 0x3e0d16143d984897U, 0xbc0f5361be37a2d4U, 0xbcc512a53e0f5361U,
  0x3ddff2483e2c7051U, 0x3d7ad1eabdc0980aU, 0x3b0f53613e25b868U, 0xbde8e77e3e332839U,
  0xbe30eaecbd4512a5U, 0xbdd28277bd184897U, 0xbe213dcdbde8e77eU, 0xbdb32839be2a3303U,
  0x3e1cc3323e0420ddU, 0x3d8ad8c6bdfad1eaU, 0xbe4bca8e3d3c1d6fU, 0xbd7ad1ea3e27f5b6U,
  0xbdb8a4853d410917U, 0xbe68e6cb3def3238U, 0xbe3abda9bd27db62U, 0x3d496da83d9b4487U,
  0xbdd1d23a3dc53b60U, 0xbd6affefbe4b86cdU, 0x3c06491bbc86491bU, 0x3e53eb5fbe25c23dU,
  0x3e3259183e34723cU, 0x3c496da83d5a36ccU, 0x3ca7db6200000000U, 0x3dc53b60bd7bc913U,
  0xbe042ff73d51d23aU, 0xbd97123ebd17123eU, 0x3e6affef3de29b5dU, 0x3b06491bbc06491bU,
  0x3db4723c3e1b4487U, 0x3d8a7b643e842ff7U, 0xbe853c893d38a485U, 0x3dd1d23abbc96da8U,
  0x3dd1d23abd0eadadU, 0x3e5e69153dfffb5bU, 0xbc97123e3cc96da8U, 0x3ca7db62bde29b5dU,
  0xbe23a919bcda36ccU, 0x3db03ff3bd9b4487U, 0xbe08623f3d8eadadU, 0x3d8a7b643c97123eU,
  0x3e0216d2be0eadadU, 0xbd7bc913bdb8a485U, 0xbbc96da83e192b63U, 0xbd9b44873dd60483U,
  0x3d7bc9133def3238U, 0x3d0eadadbe757da5U, 0x3ca7db623cfbc913U, 0xbdbcd6ce3d6affefU,
  0x3d8216d23df796caU, 0xbdfbc913bd303ff3U, 0x3e303ff3bcc96da8U, 0xbe5a36cc3df36481U,
  0x3d9f76d03e23a919U, 0x3cb8a485bd9f76d0U, 0x3e042ff7bd1f76d0U, 0x3e1f76d0bdcd9ff1U,
  0x3e1f76d03d51d23aU, 0xbb86491bbe06491bU, 0xbdda36ccbdc96da8U, 0x3d5a36ccbe410917U,
  0x3e27db623e08623fU, 0x3e042ff7bdc53b60U, 0xbdd604833d1f76d0U, 0x3db4723cbcfbc913U,
  0xbdbcd6ce3e1f76d0U, 0xbd8216d23e0216d2U, 0xbcc96da83e53eb5fU, 0x3d7364813de29b5dU,
  0xbceaffef3e06491bU, 0x3dd604833cda36ccU, 0xbdd604833e8216d2U, 0x3b86491bbd92dff5U,
  0x3d97123e3d27db62U, 0x3c06491b3c27db62U, 0x3db4723c3da3a919U, 0xbbc96da8be17123eU,
  0x3e7156acbd57aa0cU, 0xbe98c31ebd38dae6U, 0x3c767932bd57aa0cU, 0x3e3dfd6cbe7e2cfcU,
  0xbccd64ffbdbdfd6cU, 0x3e57aa0cbe005f1fU, 0xbdc84279bd38dae6U, 0x3e297352bddccc92U,
  0x3e8581a63e14e939U, 0x3dae95d9bde1ef19U, 0x3ccd64ffbd94e939U, 0xbd4d64ff3e1a0bbfU,
  0xbd94e9393e767932U, 0xbe21bf893db8dae6U, 0x3e1257f6bd2450ccU, 0xbce1ef19bcb8dae6U,
  0x3ccd64ff3ca450ccU, 0x3c767932bd4d64ffU, 0xbe02f063bdfb9bb9U, 0x3cb8dae63d38dae6U,
  0x3c8fc6b33ccd64ffU, 0x3ba450cc3b2450ccU, 0x3e7b9bb93dfb9bb9U, 0x3e1257f6be6c3425U,
  0xbe3dfd6c3bf67932U, 0xbe9b5461be1a0bbfU, 0xbbf679323dd7aa0cU, 0xbc4d64ffbe31271cU,
  0xbe431ff23e005f1fU, 0xbd805f1fbdec3425U, 0x3d1a0bbf3b2450ccU, 0x3e408eaf3e38dae6U,
  0x3e0d356f3e3649a2U, 0x3e1c9d033ce1ef19U, 0xbdec34253df67932U, 0x3c4d64ffbd4d64ffU,
  0x3e2e95d93d38dae6U, 0x3e26e20f3e790a75U, 0xbd8aa42c3d94e939U, 0xbe8aa42c3ccd64ffU,
  0x3e81a7c13dae95d9U, 0xbd7679323da450ccU, 0x3e57aa0c3e4d64ffU, 0xbb2450ccbdc84279U,
  0x3e1c9d033d8aa42cU, 0x3d38dae6bd2450ccU, 0x3d2450cc3bf67932U, 0xbdbdfd6cbb2450ccU,
  0x3e8812e93dec3425U, 0x3e977a7c3e67119fU, 0x3bf67932bd431ff2U, 0x3e5a3b4f3df67932U,
  0x3c4d64ffbd6c3425U, 0xbde1ef193e895b8bU, 0x3e0581a63ba450ccU, 0x3d9f2e46bc8fc6b3U,
  0xbd38dae63e45b136U, 0x3e977a7c3e408eafU, 0xbe005f1f3ea3082aU, 0xbdae95d9be297352U,
  0x3e1c9d033c8fc6b3U, 0xbdd7aa0c00000000U, 0xbe1257f6bdcd64ffU, 0xbda450cc3db8dae6U,
  0x3d39b8e73c0d80b0U, 0xbd803c9f3dcfd502U, 0xbcb0e0dc3bd44108U, 0x3e04a8a5be4290f2U,
  0x3d2808d1be5d1913U, 0x3e5d1913be2eaad9U, 0x3e6ec929bb8d80b0U, 0xbd9f30c6bc0d80b0U,
  0xbde18518bdcfd502U, 0xbdbe24ec3de18518U, 0xbdbe24ec3e0b4aadU, 0x3d04a8a5be8b4aadU,
  0x3da39ccbbd803c9fU, 0xbd1f30c63dc6fcf7U, 0x3cb0e0dcbcc290f2U, 0xbde185183e2808d1U,
  0x3e0b4aadbe56770bU, 0xbb8d80b0bc544108U, 0xbe8c65afbe520b05U, 0x3d803c9fbe0b4aadU,
  0xbde1851800000000U, 0xbd84a8a5be73352eU, 0xbd803c9f3e4932faU, 0xbe1658bbbd544108U,
  0x3c5441083db0e0dcU, 0xbc0d80b0bc0d80b0U, 0x3b0d80b03c0d80b0U, 0x3d84a8a53d8914aaU,
  0x3d1f30c63e0d80b0U, 0x3de185183d2808d1U, 0x3de18518bd6ec929U, 0xbe11ecb5bb8d80b0U,
  0xbd9f30c63dac74d6U, 0x3e4290f2bcb0e0dcU, 0xbe2eaad9bcb0e0dcU, 0xbd8d80b03e1422b8U,
  0x3e4932fabe5d1913U, 0x3e520b053e5f4f16U, 0xbdc6fcf73d77a134U, 0xbe7c0d39be85c3a6U,
  0x3de5f11ebe0272a2U, 0xbe5f4f16be1ac4c0U, 0x3c0d80b03dcb68fdU, 0x3e5ae310bd39b8e7U,
  0x3d91ecb53d84a8a5U, 0xbe1cfac33e4932faU, 0xbcc290f2be0d80b0U, 0x3d5441083db0e0dcU,
  0xbd84a8a5bdcfd502U, 0x3e3beeea3de18518U, 0xbd9f30c6bdcb68fdU, 0x3dcfd502bd77a134U,
  0xbd4290f23d9658bbU, 0xbdcb68fdbdeec929U, 0x3e0fb6b33dfc0d39U, 0xbd9f30c6bd04a8a5U,
  0x3e354ce13e3beeeaU, 0x3e0914aabe11ecb5U, 0xbe5f4f163dcfd502U, 0xbd30e0dcbe4b68fdU,
  0x3deec9293d9f30c6U, 0xbe0fb6b3bd4290f2U, 0x3da808d1bc30e0dcU, 0x3d1f30c6bc0d80b0U,
  0xbb942c9b3c3937c2U, 0x3e01a70800000000U, 0x3e2902e13e24617cU, 0xbdb937c23e55001fU,
  0xbd942c9b3d5e42e9U, 0x3d8ae9d13e5e42e9U, 0xbe03f7ba3d942c9bU, 0x3cf0c87c3e0f8b36U,
  0x3cde42e9bd942c9bU, 0x3d2ff4f83db937c2U, 0x3ca6b22e3d26b22eU, 0xbcde42e93e52af6cU,
  0x3dd5001f3d5e42e9U, 0x3d9d6f653e18ce00U, 0xbde2e44dbc942c9bU, 0x3e5e42e9bdec2717U,
  0x3e3937c23e11dbe9U, 0xbdde42e93db4965dU, 0xbde785b23e142c9bU, 0x3e36e70fbccbbd55U,
  0xbd8f8b36bd942c9bU, 0x3e88991fbdde42e9U, 0xbdec2717be2ff4f8U, 0x3da210cabd7a0b46U,
  0xbdd05ebabdde42e9U, 0x3e3dd9273d6785b2U, 0x3e11dbe93d1d6f65U, 0x3dd5001f3e59a184U,
  0x3d427a8c3d01a708U, 0x3e34965d3d8f8b36U, 0xbd8f8b36bdf0c87cU, 0xbe1b1eb2be167d4dU,
  0xbd1d6f653d5e42e9U, 0x3e34965d3e4e0e08U, 0x3e7a0b46bd3937c2U, 0x3d142c9bbd6785b2U,
  0xbd2ff4f83df0c87cU, 0xbbde42e93e0f8b36U, 0x3e3b88743c5e42e9U, 0xbd81a7083dde42e9U,
  0x3e142c9bbdd9a184U, 0xbdab53933d2ff4f8U, 0x3c942c9b3e2da446U, 0x3d5e42e9bdf0c87cU,
  0x3dfeacab3e5750d1U, 0x3e6e77ca3e2210caU, 0xbb142c9bbd26b22eU, 0x3e5750d13e55001fU,
  0x3e930442bda6b22eU, 0xbe427a8c3e0f8b36U, 0xbc142c9bbd4bbd55U, 0x3dc27a8cbe1d6f65U,
  0x3e1b1eb2bdaff4f8U, 0x3e3b8874bdfa0b46U, 0x3d86486dbda6b22eU, 0x3e2902e1bd4bbd55U,
  0x3e7eacabbdd9a184U, 0x3de2e44d3e1fc017U, 0x3d9d6f65bd3937c2U, 0xbd427a8cbd4bbd55U,
  0xbe01a708bdf569e1U, 0x3e03f7babd8ae9d1U, 0x3e60939b3d01a708U, 0x3e0d3a843d70c87cU,
  0x3c7addf23d89fa12U, 0x3e96852b3d553ca7U, 0x3e553ca7bdf49865U, 0x3dee52d93d83b485U,
  0xbe8223223e553ca7U, 0x3da955d03d48b18eU, 0x3dfaddf2be6e52d9U, 0x3b48b18e3dbc2675U,
  0x3c48b18e3de1c7c0U, 0x3c16852bbe3c2675U, 0xbd3c2675bdb5e0e9U, 0xbdcef71a3e71759fU,
  0xbdaf9b5cbd6e52d9U, 0xbcc8b18e3d16852bU, 0x3e426c023dfaddf2U, 0xbd96852b3c48b18eU,
  0xbdfaddf2bd61c7c0U, 0x3d3c2675be1fed7dU, 0x3e4bd4543e77bb2bU, 0xbd9ccab7bdf49865U,
  0xbe136264be4ef71aU, 0xbdc26c023d2f9b5cU, 0xbda310433e1ccab7U, 0x3d7addf23d903f9eU,
  0xbd2f9b5cbe3c2675U, 0x3e8545e8be426c02U, 0x3e6b3012be3c2675U, 0x3e19a7f1bb48b18eU,
  0xbd7addf2bd89fa12U, 0xbd3c26753ce1c7c0U, 0xbd61c7c03d83b485U, 0xbe32be22bd231043U,
  0xbe09fa123d231043U, 0xbdb5e0e93e585f6dU, 0x3c7addf2bd553ca7U, 0x3d3c26753c96852bU,
  0xbdcef71a3e8545e8U, 0x3d6e52d9bd89fa12U, 0x3d2f9b5cbe48b18eU, 0x3ec7202b3e585f6dU,
  0x3e48b18e3e16852bU, 0x3d2f9b5c3e5b8233U, 0x3bc8b18e3e8545e8U, 0x3d89fa12bc48b18eU,
  0x3dcef71abcc8b18eU, 0xbe822322bc7addf2U, 0xbde1c7c0be09fa12U, 0x3dd53ca73d2f9b5cU,
  0xbddb82333df49865U, 0x3de1c7c03e0d1cd8U, 0x3e5b82333e06d74bU, 0x3e03b485bddb8233U,
  0x3dc26c023ddb8233U, 0xbc96852bbd903f9eU, 0x3e8223223d48b18eU, 0x3d2f9b5cbe585f6dU,
  0xbbc8b18ebc48b18eU, 0xbe06d74b3dc8b18eU, 0x3e03b4853dbc2675U, 0x3e03b485be585f6dU,
  0xbdbc26753dc26c02U, 0xbe0091bf3ce1c7c0U, 0x3dc8b18e3cfaddf2U, 0x3dd53ca7bdc8b18eU,
  0xbda69caabe2d8ddbU, 0x3db91fd93dec089bU, 0x3b94197abe1669e0U, 0x3e6c089b3e0f78aeU,
  0xbd14197a3d81964bU, 0x3dfe8bcabdd4e4a0U, 0x3c14197a3cb91fd9U, 0xbdec089bbd426170U,
  0x3d1d5b12bd01964bU, 0xbd4ba3083dec089bU, 0xbdafde413d2fde41U, 0xbe40110b3d54e4a0U,
  0xbdc7023c3dfe8bcaU, 0x3e72f9cd3e1fab78U, 0x3d863717U, 0x3e2fde41bccba308U,
  0x3d94197a3e70a967U, 0xbe2b3d753e83e6b1U, 0x3e0637173e92f147U, 0x3cf0a967be52943aU,
  0xbd70a9673d863717U, 0x3d70a9673d391fd9U, 0xbe70a9673ccba308U, 0x3dd4e4a03da1fbdeU,
  0xbdb91fd9be3dc0a5U, 0x3c81964bbd5e2637U, 0xbc391fd9be2b3d75U, 0x3cb91fd93e47023cU,
  0x3d4261703d6767cfU, 0x3dcba3083db47f0dU, 0x3d391fd9bd94197aU, 0xbe11c9143e59856cU,
  0x3dd4e4a03e063717U, 0x3df9eafe3d8f78aeU, 0x3d391fd93d4ba308U, 0xbda69caabe11c914U,
  0xbdb47f0d3e1fab78U, 0xbd1d5b123e426170U, 0x3e5043d4bd426170U, 0x3e08877d3e18ba46U,
  0x3e1fab78bb94197aU, 0x3df0a967bc5e2637U, 0x3dafde41U, 0x3dafde413b14197aU,
  0xbd5e26373d9d5b12U, 0x3dfe8bca3d01964bU, 0xbdab3d753d14197aU, 0xbdfe8bca3dc26170U,
  0x3d8637173d426170U, 0xbe08877d3d14197aU, 0x3dafde413d81964bU, 0xbd391fd9be2d8ddbU,
  0x3e3b703fbe36cf73U, 0xbe81964b3e2fde41U, 0xbd0ad7e3bdf0a967U, 0x3e244c44bc391fd9U,
  0x3c5e26373c94197aU, 0x3dc261703e1fab78U, 0x3c5e26373da1fbdeU, 0xbd5e2637be18ba46U,
  0xbd54e4a0be1fab78U, 0x3d4ba3083e269caaU, 0xbc14197a3ccba308U, 0x3e14197abd269caaU,
  0xbd3475463dc07d17U, 0xbc407d173d588cbaU, 0xbe1963ae3e0d5bddU, 0x3e01540b3d7ca42eU,
  0x3dba792e3cc07d17U, 0x3db47546bc905dd1U, 0xbd905dd13e286d74U, 0x3d7ca42e3e709c5dU,
  0x3e81540b3dc68100U, 0x3d588cba3da86d74U, 0x3e0d5bddbcd88cbaU, 0xbcf09c5d3c905dd1U,
  0xbc105dd1bdc07d17U, 0xbd845600bd709c5dU, 0x3e407d17bdae715dU, 0xbd0456003dae715dU,
  0xbd3475463d588cbaU, 0x3e9de69dbe01540bU, 0x3e2e715dbe437f0bU, 0xbd407d17be1f6797U,
  0xbc105dd13dfca42eU, 0xbe045600be01540bU, 0x3e8bdae33e5e90a3U, 0xbe22698b3dde90a3U,
  0xbe0a59e93e8757f4U, 0x3d4c84e8be1661baU, 0xbdf09c5dbda2698bU, 0xbdfca42e3d407d17U,
  0xbdae715d3c105dd1U, 0xbe0456003dcc84e8U, 0x3d9c65a33e9c65a3U, 0x3e01540bbda86d74U,
  0x3dc07d173dc07d17U, 0xbe558ac63c407d17U, 0x3ca86d74bd347546U, 0xbdc07d173d045600U,
  0x3d709c5dbe2e715dU, 0x3ea2698bbe2b6f69U, 0xbe286d743e97e2b4U, 0xbdd88cbabe905dd1U,
  0x3cd88cba3e347546U, 0xbe045600bdc07d17U, 0xbd9c65a3bc105dd1U, 0x3dba792e3dc07d17U,
  0x3df6a046be0757f4U, 0x3dd88cba3e0a59e9U, 0x3e1963aebe4982f4U, 0x3df09c5d3dc07d17U,
  0xbe22698b3dea9874U, 0x3dde90a3bdf6a046U, 0xbd588cba3d1c65a3U, 0x3e3a792e3e0d5bddU,
  0x3dc681003c709c5dU, 0xbd7ca42e3d286d74U, 0xbe0a59e93da2698bU, 0xbe9963ae3ebefc1dU,
  0xbd0456003dea9874U, 0x3d905dd1be105dd1U, 0x3bc07d173dde90a3U, 0x3d9c65a3bdd288d1U,
  0xbcc07d173e135fc6U, 0x3d8a59e93d1c65a3U, 0x3d0456003d7ca42eU, 0xbe6192973cd88cbaU,
  0xbdce573cbe287102U, 0x3db9491bbd4a2135U, 0x3debd1693cebd169U, 0x3d8f2cdb3d7ca982U,
  0xbd5af94f3e0af6d5U, 0x3dc1b5283e765879U, 0xbd1798e8bdce573cU, 0x3dbd7f22bbca2135U,
  0x3e614a593d6bd169U, 0xbdf0076fbd6bd169U, 0xbe3d7f223e1362e1U, 0x3e743d753d1798e8U,
  0x3dc5eb2f3df0076fU, 0x3d5af94fbda004f5U, 0xbe221ff83e221ff8U, 0x3db9491b3e58de4cU,
  0x3e08dbd13e5d1452U, 0x3daca708be1147deU, 0x3e4806323e19b3ebU, 0x3e3b641fbdb0dd0eU,
  0xbc9798e83e679b62U, 0xbe3b641f3e0f2cdbU, 0xbdbd7f223e56c348U, 0xbc2871023e1de9f1U,
  0x3c86c0ce3e0f2cdbU, 0x3dbd7f223d39491bU, 0x3e58de4c3d9798e8U, 0x3e2ca7083e32f812U,
  0x3e65805f3d7ca982U, 0x3e63655c3e6dec6cU, 0x3e85b34c3e4a2135U, 0xbde3655cbc9798e8U,
  0xbe1798e8be743d75U, 0xbe19b3eb3e78737cU, 0x3dd28d42be351315U, 0x3db513153dbd7f22U,
  0xbe54a8453e2655feU, 0xbcb9491bbdd28d42U, 0xbd2004f5bd4a2135U, 0x3dbd7f223e30dd0eU,
  0x3dca21353d9362e1U, 0x3e43d02b3e50723fU, 0xbd4a21353e221ff8U, 0x3d2004f53e4e573cU,
  0xbe528d42bd30dd0eU, 0x3cfca9823e1362e1U, 0x3e1de9f13cca2135U, 0xbddf2f553e3b641fU,
  0x3e0f2cdb3da43afbU, 0xbe78737cbe221ff8U, 0x3d8f2cdb3e3d7f22U, 0xbd7ca982be58de4cU,
  0xbe287102bd828ac8U, 0x3e2ec20bbdd6c348U, 0xbdaca7083cfca982U, 0xbdbd7f22bcca2135U,
  0xbe528d42bc4a2135U, 0xbdfca9823dc5eb2fU, 0xbd63655cbe528d42U, 0x3db513153d2004f5U,
  0xbe70076f3df43d75U, 0x3e04a5cb3d9362e1U, 0x3e828ac8bdf8737cU, 0x3e1bceee3e0af6d5U,
  0x3e0f5c5aU, 0xbe2ddcf03e4c5d86U, 0x3c926936be52773eU, 0xbdb70384be0635c7U,
  0x3dbd1d3bbe0942a3U, 0x3d370384be1b8fc9U, 0xbcc336f33e7d2b43U, 0x3d8635c7be157612U,
  0x3cdb9dd1bd9882eeU, 0xbde7d1403caad014U, 0x3e126936bdc336f3U, 0xbd801c0fbc4336f3U,
  0x3dbd1d3b3de1b789U, 0xbdd58419bdedeaf8U, 0x3ddb9dd1bdb70384U, 0xbe402a173e1b8fc9U,
  0x3d2ad0143d7404afU, 0x3daad0143d926936U, 0xbe8ac911be4950aaU, 0xbd801c0f3e370384U,
  0x3d9882eebe6ade1cU, 0xbe4336f33db70384U, 0x3e27c339bd8635c7U, 0x3da4b65dbdfa1e67U,
  0xbdc950aa3e3a105fU, 0xbd8c4f7e3e0328ebU, 0xbd1e9ca53e4f6a62U, 0x3d126936be27c339U,
  0xbe402a17bd2ad014U, 0x3e7404afbec1b085U, 0x3e001c0f3e5b9dd1U, 0xbc4336f33d9882eeU,
  0xbe001c0fbdbd1d3bU, 0xbda4b65dbea02313U, 0xbe70f7d43e61b789U, 0xbe24b65d3c4336f3U,
  0xbbc336f33cf404afU, 0x3e8328eb3e2ad014U, 0x3d8c4f7ebdbd1d3bU, 0xbe0f5c5a3d126936U,
  0x3d4336f33d801c0fU, 0xbe4950aabd1e9ca5U, 0xbe2ad014bd926936U, 0xbc9269363e3a105fU,
  0x3e33f6a8be157612U, 0xbdcf6a62bbc336f3U, 0xbcc336f3be30e9ccU, 0x3dc336f3be6deaf8U,
  0xbe0635c73dc336f3U, 0xbc126936U, 0xbd0635c7bdbd1d3bU, 0x3e1b8fc93e7404afU,
  0xbdb703843cf404afU, 0x3c9269363daad014U, 0xbdb0e9cc3e157612U, 0xbd8635c7bd126936U,
  0x3c4336f33bc336f3U, 0xbde1b789be558419U, 0x3e402a17U, 0xbc9269363d4f6a62U,
  0x3c9269363e3d1d3bU, 0x3cc336f3bcf404afU, 0xbe93efa4bde7d140U, 0x3d801c0f3e2ad014U,
  0x3e84ad953de18d7eU, 0xbe4298303cf7aa6cU, 0xbc77aa6cbe2c7b42U, 0x3e470460bc0d85f5U,
  0xbe18946c3b8d85f5U, 0xbd965e54bdd8b51fU, 0xbdac7b423e0919c5U, 0xbd8919c5bd77aa6cU,
  0x3dd448ef3e839289U, 0x3d30e772bd39bfd1U, 0x3e216ccb3dd448efU, 0x3d8919c5bcb0e772U,
  0xbbd448ef3e5d214eU, 0x3e11f224bd65f9aeU, 0xbd4b7090be004166U, 0xbe23a2e33d8d85f5U,
  0x3e6a65ddbc5448efU, 0x3e406219bc77aa6cU, 0xbe8041663dac7b42U, 0xbda80f13bd8919c5U,
  0xbdb0e772be18946cU, 0x3e0d85f5bd04ad95U, 0xbd39bfd1be0fbc0dU, 0x3e79e0843d1f36b3U,
  0xbdbe2c01be18946cU, 0x3d5448ef3e1f36b3U, 0xbdcb70903e11f224U, 0x3e280f133dcb7090U,
  0xbd280f13be3e2c01U, 0x3e30e772bdcb7090U, 0x3d6ed20d3e06e3adU, 0xbe04ad95bdd448efU,
  0x3e23a2e33d965e54U, 0xbd91f2243d1f36b3U, 0xbda80f133d965e54U, 0xbd30e772bc9f36b3U,
  0x3e4298303e3553a2U, 0x3df7aa6c3b8d85f5U, 0xbcb0e772bdf33e3dU, 0xbd1f36b33e85c8a1U,
  0x3e1aca843e165e54U, 0xbc5448ef3d84ad95U, 0xbda3a2e33df7aa6cU, 0x3dac7b423dea65ddU,
  0xbc0d85f53e567f07U, 0x3cc298303e1aca84U, 0xbd965e54U, 0xbb0d85f5be65f9aeU,
  0xbd04ad953e2a452aU, 0x3e58b51f3d1f36b3U, 0xbc9f36b3bcc29830U, 0x3e0d85f53dea65ddU,
  0xbd8041663d30e772U, 0x3b0d85f53e14283cU, 0xbdb553a2bc9f36b3U, 0x3e8c6ae93c30e772U,
  0x3e6a65dd3e4b7090U, 0xbd9aca84bd804166U, 0xbd280f13bcc29830U, 0xbd6ed20d3db9bfd1U,
  0xbcc298303de5f9aeU, 0xbd8d85f53e5212d7U, 0xbdc29830bda3a2e3U, 0x3d77aa6c3e5d214eU,
  0x3e3d43843d8140d7U, 0xbd85de953df4a872U, 0xbdf4a8723e0a7c54U, 0xbd5d93b93dd4583cU,
  0x3e340806be0ccb33U, 0x3cdd93b93e082d74U, 0x3e2d1b693e467f01U, 0x3e48cde03e2acc89U,
  0x3daf6a48be340806U, 0x3d54583c3e262ecbU, 0x3e1606b03c8140d7U, 0x3e3656e6be929061U,
  0x3d9cf34ebb13b7d1U, 0x3b93b7d13b93b7d1U, 0xbe1cf34e3cb8a5c5U, 0x3cf00ab3bd0a7c54U,
  0x3e0a7c54be23dfecU, 0x3e1cf34e3e6b6cf5U, 0x3cdd93b9be56a71bU, 0xbe1cf34e3e4b1cbfU,
  0xbdc67f013e13b7d1U, 0xbd7946303c38a5c5U, 0xbd8a7c54be21910cU, 0xbe2d1b693e5d93b9U,
  0xbc5d93b9bd93b7d1U, 0x3e3d43843e1cf34eU, 0x3de231783dbd4384U, 0x3daacc893d5d93b9U,
  0x3db408063d8140d7U, 0x3d0a7c54be082d74U, 0x3e4b1cbf3e8140d7U, 0x3da1910c3b93b7d1U,
  0x3dcfba7ebe1168f2U, 0xbdb408063e1aa46fU, 0xbd5d93b9bd85de95U, 0x3ca62ecb3e082d74U,
  0xbd2f6a48bd9cf34eU, 0x3e3af4a4bc13b7d1U, 0xbd0140d73deb6cf5U, 0xbe76f751bd262ecbU,
  0x3dd4583c3d54583cU, 0xbd85de95bdcb1cbfU, 0xbdaf6a483d8a7c54U, 0xbc93b7d13b93b7d1U,
  0x3e52095d3d8a7c54U, 0x3df00ab33d54583cU, 0x3de231783d41e142U, 0xbd2f6a48bc38a5c5U,
  0x3e21910cbda62ecbU, 0xbca62ecbbe0f1a12U, 0x3d41e1423e038fb6U, 0x3e41e142bdfde3efU,
  0x3c38a5c5bdaacc89U, 0x3e467f01be0f1a12U, 0xbe0f1a123d8f1a12U, 0x3dc1e142bbdd93b9U,
  0x3e3656e63dc1e142U, 0xbca62ecb3d13b7d1U, 0xbe8954e4be2f6a48U, 0xbd0a7c543d794630U,
  0xbdd4583c3e1aa46fU, 0x3daacc893e31b927U, 0x3e4b1cbf3e21910cU, 0x3d8f1a123e7de3efU,
  0x3e3b20d63d991adeU, 0x3c0817e2bd6e29cbU, 0xbe0dc38b3dbb20d6U, 0x3d1ec687bdb5752dU,
  0x3e73d574be219c5cU, 0x3e4c23d23d936f34U, 0x3dc0cc80bd826c38U, 0x3cf9811e3d79811eU,
  0x3c35752dbc0817e2U, 0x3df3d5743de87e21U, 0xbd0817e23e8817e2U, 0x3e8f2e75be026c38U,
  0x3ddd26cf3d8817e2U, 0x3e0817e2be4c23d2U, 0xbe136f34bdc67829U, 0x3e6e29cbbb35752dU,
  0x3e70ffa0be1ec687U, 0x3e62d2783dd1cf7cU, 0xbde87e21beb40a42U, 0xbe191adebccc23d2U,
  0x3dbb20d63e2cf3afU, 0x3b35752dbe9d5b9dU, 0x3e1ec6873d62d278U, 0xbe1645093dbb20d6U,
  0xbe0aedb63e7c56f2U, 0x3dff2cc7bd79811eU, 0xbc35752d3d40cc80U, 0x3d1ec687be2a1ddaU,
  0xbdd1cf7c3d577b25U, 0x3c9ec6873d936f34U, 0x3e7c56f2bd8817e2U, 0x3d991ade3d6e29cbU,
  0xbd4c23d23ccc23d2U, 0x3dc67829bddd26cfU, 0xbc9ec6873e136f34U, 0xbd8dc38b3e8aedb6U,
  0xbcf9811ebe70ffa0U, 0x3e026c38bdc67829U, 0xbdcc23d23e109960U, 0x3d2a1ddabdb5752dU,
  0xbdd1cf7cbe1ec687U, 0xbdbb20d63bb5752dU, 0xbe0dc38bbe5a50faU, 0x3d2a1dda3c8817e2U,
  0x3e5ffca33d62d278U, 0xbc8817e2bc0817e2U, 0x3e1ec6873e109960U, 0xbd936f343dff2cc7U,
  0x3d577b25be35752dU, 0xbd79811ebe1bf0b3U, 0x3d8817e2bd9ec687U, 0x3bb5752d3e5d26cfU,
  0xbe43a2543e43a254U, 0x3e4ef9a73d9ec687U, 0xbcb5752dbd1ec687U, 0xbdd77b253c62d278U,
  0x3dd77b253e62d278U, 0xbd1ec687be6b53f6U, 0xbe79811ebddd26cfU, 0xbd136f343e43a254U,
  0x3d2a1ddabc0817e2U, 0x3d4c23d23d79811eU, 0x3d9ec687bdc67829U, 0x3df9811ebd6e29cbU,
  0x3d8d44ac3dccd6c6U, 0x3d29859bbda2755fU, 0x3c8d44acbe3eb64eU, 0x3df027f0be7e4868U,
  0xbe5e7f5bbe1454e7U, 0x3d29859bbe4cd6c6U, 0x3e3b2e30bc29859bU, 0x3df027f0be063470U,
  0x3e6207793e8d44acU, 0x3d9454e7be89bc8eU, 0x3ce20779be45c68aU, 0xbe25fd7dbdc5c68aU,
  0xbcc5c68abe9454e7U, 0xbddaf73d3e5e7f5bU, 0x3de207793ddaf73dU, 0xbe89bc8e3ddaf73dU,
  0xbc29859bbe90ccc9U, 0x3c29859bbe3b2e30U, 0x3dc5c68a3c8d44acU, 0xbd29859bbcc5c68aU,
  0xbe82ac52bea0b150U, 0xbe1eed41bdf7382cU, 0x3eab49aa3dccd6c6U, 0x3d7027f03ce20779U,
  0x3da2755fbde20779U, 0xbe02ac52bd37a612U, 0xbd29859b3ca9859bU, 0xbde917b5be1b6523U,
  0xbd1b6523bddaf73dU, 0xbe17dd05bc8d44acU, 0x3d29859b3e3b2e30U, 0xbe02ac523cfe4868U,
  0x3ee0436a3da9859bU, 0x3d45c68abd37a612U, 0xbdccd6c63ea7c18cU, 0x3d0d44acbc8d44acU,
  0x3eb41df4be37a612U, 0x3e3b2e30bcc5c68aU, 0xbe341df4bd7e4868U, 0x3ca9859bbdb7a612U,
  0xbdb095d63d9454e7U, 0x3c620779bdf7382cU, 0x3e1eed413e4cd6c6U, 0x3d7e4868bca9859bU,
  0x3d37a612bddaf73dU, 0xbe73b00e3d9454e7U, 0xbd620779bc29859bU, 0x3d8d44acbbe20779U,
  0x3ce207793e45c68aU, 0x3e7ac04a3e341df4U, 0x3d29859b3d29859bU, 0x3e89bc8e3e99a114U,
  0xbce20779bd0d44acU, 0x3dd3e7013e6917b5U, 0x3c8d44ac3d9b6523U, 0x3ca9859b3e73b00eU,
  0xbe4cd6c63e1b6523U, 0x3ea2755fbcfe4868U, 0xbde917b53dfe4868U, 0x3d37a612be29859bU,
  0x3e5e7f5b3dbeb64eU, 0xbe10ccc93cfe4868U, 0x3d0d44ac3e576f1fU, 0xbe658f97bd7027f0U,
  0x3dab6a9e3e4ee1c8U, 0xbe7258f1bdb153d0U, 0xbdcee1c8bd6c6fc0U, 0xbdcee1c8bd19af09U,
  0x3d25816cbe0ae80dU, 0x3e5ab42bbd9f983bU, 0x3e6391f53cbd2633U, 0x3e0ae80dbdc30f64U,
  0x3c0ddca6bcec6fc0U, 0x3c6c6fc03d19af09U, 0xbd54caf9bd93c5d8U, 0xbd93c5d8bdf258f1U,
  0x3b3d26333dfe2b54U, 0xbe19af09bd3153d0U, 0x3dbd26333d99af09U, 0x3d020a43be25816cU,
  0x3dfe2b54bd54caf9U, 0x3ddab42bbd19af09U, 0xbea40720be96ba70U, 0xbe344868bd609d5cU,
  0xbbbd2633bcec6fc0U, 0x3dcee1c8be48f896U, 0x3d0ddca63dec6fc0U, 0x3df84223be2e5f37U,
  0x3dc30f64bda5816cU, 0xbe344868be0ae80dU, 0xbd99af093d784223U, 0x3e3448683cd4caf9U,
  0x3d020a433d784223U, 0xbbbd2633be373d01U, 0x3e10d13fbd820a43U, 0xbc0ddca6bddab42bU,
  0x3e1ca3a2bb3d2633U, 0xbcd4caf9bdec6fc0U, 0xbc0ddca63e2b6a9eU, 0xbd8ddca63b3d2633U,
  0xbdb73d01be2e5f37U, 0x3dcee1c8bdc8f896U, 0xbdec6fc0be04fedcU, 0x3d3153d03d54caf9U,
  0xbdbd26333d54caf9U, 0xbe344868bdb73d01U, 0x3db153d03de09d5cU, 0x3d99af093d9f983bU,
  0x3cbd26333e287605U, 0x3b3d26333e16ba70U, 0x3cbd2633U, 0xbe3d26333d48f896U,
  0xbd87f3753dfe2b54U, 0x3e3153d0bd6c6fc0U, 0xbcbd26333d609d5cU, 0x3e430f64bd8ddca6U,
  0xbcbd26333dab6a9eU, 0x3e19af093dab6a9eU, 0xbcd4caf93e13c5d8U, 0xbd6c6fc03e0ae80dU,
  0x3d87f3753e373d01U, 0x3e2876053dbd2633U, 0xbebbabe63e57bf92U, 0xbdab6a9ebb3d2633U,
  0xbd820a433db73d01U, 0xbe754d8a3e25816cU, 0xbd7842233d3153d0U, 0xbe373d013da5816cU,
  0x3e582eb13d9acc1aU, 0xbd8ac8a43e202296U, 0x3c001bab3d2acf8fU, 0x3e2acf8f3cd58373U,
  0x3e081d66bdf033e1U, 0x3e6586e8bcd58373U, 0x3dd58373bd357c88U, 0x3dc02981be897305U,
  0xbd6add653ceadd65U, 0x3d357c88bc2acf8fU, 0x3c801babbd758a5eU, 0x3d801bab3e282451U,
  0xbe001bab3e30260cU, 0xbde586e83e72df1fU, 0x3e2d7acd3cd58373U, 0xbe6d88a3bd15759dU,
  0xbd202296bd402981U, 0x3e12ca5f3e5d852eU, 0xbdaacf8fbc558373U, 0xbe0ac8a43d857228U,
  0x3c95759dbd357c88U, 0x3d801babbd4ad67aU, 0xbdfae0dabe101f21U, 0x3e1d7758bdbad304U,
  0xbe7ae0da3c2acf8fU, 0xbe92ca5f3e5ad9efU, 0xbe357c88bb2acf8fU, 0xbe2579133d95759dU,
  0x3b2acf8f3d357c88U, 0x3df58a5ebe057228U, 0xbe9d77583dd58373U, 0xbe2acf8f3b2acf8fU,
  0x3e8ec9823dd02cf6U, 0x3e9820dbbc95759dU, 0xbdc57ffd3e1820dbU, 0x3d95759dbe357c88U,
  0x3e30260cbd857228U, 0xbcaacf8f3e99767bU, 0x3e02c6ea3ceadd65U, 0xbe457ffd3e60306cU,
  0x3ea979f03daacf8fU, 0xbe0d73e23da57913U, 0x3e001bab3e057228U, 0x3ceadd653d558373U,
  0x3e72df1f3e0ac8a4U, 0x3d402981bd6add65U, 0xbdf033e13d60306cU, 0x3d2acf8fbcc02981U,
  0x3d001babbda02296U, 0x3de586e83d8ac8a4U, 0x3e6add65be0ac8a4U, 0x3e9174c03e402981U,
  0x3e4ad67a3e101f21U, 0x3c95759d3e6d88a3U, 0xbe0ac8a4bd202296U, 0x3e6d88a33e1acc1aU,
  0x3e1d77583d758a5eU, 0x3cc02981bd15759dU, 0xbcd583733e001babU, 0xbd4ad67abe1acc1aU,
  0x3caacf8fbdd58373U, 0xbd8ac8a43e6d88a3U, 0xbdc02981bd60306cU, 0x3e357c88be22cdd4U,
  0xbde1fa09bd538d7bU, 0x3e7066973d538d7bU, 0x3e538d7b3e2847d0U, 0x3d069fda3e7ed326U,
  0x3dfed3263e4520edU, 0xbda378f63e2847d0U, 0xbe2847d0bdbb8339U, 0x3db6b45fbc869fdaU,
  0x3df066973d405213U, 0x3d5d2b2f3dc05213U, 0xbe7535713e150c68U, 0x3c869fda3e5f929cU,
  0x3dc520ed3e538d7bU, 0x3be6c8e3bc99db42U, 0xbdb6b45fbdd85c55U, 0x3e1eaa1c3b19db42U,
  0x3df53571bd66c8e3U, 0xbe538d7b3d9eaa1cU, 0x3dfed326bd103d8eU, 0x3e61fa09bd81d100U,
  0xbd49efc7bb99db42U, 0x3d36b45fbcd38d7bU, 0xbe47885a3d103d8eU, 0xbdc05213bc66c8e3U,
  0x3e5f929c3da847d0U, 0x3e12a4fb3d2378f6U, 0xbd2d16aabe01d100U, 0x3e12a4fb3e6b97bdU,
  0xbd36b45fbdb1e585U, 0x3cad16aa3e2d16aaU, 0x3dcebea13cc05213U, 0x3e5f929cbce6c8e3U,
  0xbe646176bdd85c55U, 0x3d49efc73e25e063U, 0x3da847d0be01d100U, 0x3b19db42bdfed326U,
  0xbdb6b45fbcd38d7bU, 0xbdc9efc7be5f929cU, 0xbcd38d7b3db1e585U, 0x3e150c683e0dd621U,
  0x3c99db423d069fdaU, 0x3b19db42bd103d8eU, 0xbde6c8e3bcfa044cU, 0x3cd38d7bbe090747U,
  0xbd405213be3deaa6U, 0x3e2d16aa3e5d2b2fU, 0x3e391bcc3e0dd621U, 0xbb19db42bcd38d7bU,
  0xbdb6b45fU, 0xbe51260e3dbb8339U, 0x3ddd2b2f3c99db42U, 0xbe8304b63d66c8e3U,
  0xbd5d2b2fbd2d16aaU, 0x3d7a044cbbe6c8e3U, 0xbd49efc73c869fdaU, 0x3dfa044c3d5d2b2fU,
  0xbc66c8e3bd950c68U, 0x3e0dd621U, 0x3cad16aabe98a78cU, 0x3e538d7b3e61fa09U,
  0x3db1e585bd19db42U, 0x3e61fa09be150c68U, 0x3dd38d7b3d538d7bU, 0x3dd38d7b3e47885aU,
  0xbdcca06bbd5c5dfdU, 0x3e3a4341bdc7613bU, 0x3d51df9c3e22a6e6U, 0x3e032bc1bdf15ac0U,
  0x3d832bc13e12e954U, 0xbcfbd922bd12e954U, 0xbdcca06b3dad2547U, 0xbd47613bbba7e616U,
  0xbd8daa233dd71ecdU, 0xbdc7613bbdc7613bU, 0x3e1588ecbd982884U, 0xbe4ca06b3e7e78baU,
  0xbbfbd922bdb26478U, 0xbb27e6163e20074dU, 0x3d51df9c3dc2220aU, 0x3e20074d3df15ac0U,
  0xbe697bf7bdc2220aU, 0xbd086af2bea6964aU, 0x3e847b8ebcbce2d9U, 0x3d3264783e086af2U,
  0x3ce6dc5f3c92e954U, 0xbe9eb781bd66dc5fU, 0x3d832bc13e1d67b5U, 0xbe5efd963e0b0a8bU,
  0x3e697bf73e37a3a8U, 0x3e982884bd8daa23U, 0x3de6dc5fbd1d67b5U, 0x3e4a00d3bd9d67b5U,
  0x3e3a4341bd832bc1U, 0x3d27e6163e547f34U, 0xbcfbd9223e697bf7U, 0x3cd1df9c3e6c1b8fU,
  0xbe12e9543d832bc1U, 0xbd51df9c3e0b0a8bU, 0x3e571ecd3ba7e616U, 0xbde6dc5f3d086af2U,
  0xbdc7613bbc51df9cU, 0xbb27e616be793989U, 0xbdf15ac0bb27e616U, 0x3e1049bbbe7e78baU,
  0xbd9828843d12e954U, 0x3e12e954bd7bd922U, 0xbdd1df9cbcbce2d9U, 0xbda2a6e63dc2220aU,
  0xbca7e616be2a85afU, 0xbd3ce2d9bdb26478U, 0xbdad2547bd1d67b5U, 0xbdad25473e47613bU,
  0xbdec1b8f3e571ecdU, 0x3d832bc13de19d2eU, 0xbd92e9543e37a3a8U, 0xbe9199873ce6dc5fU,
  0x3e05cb5abdec1b8fU, 0xbc92e9543e1049bbU, 0x3d086af23d12e954U, 0xbdec1b8f3e182884U,
  0xbd832bc13e571ecdU, 0x3db7a3a83dcca06bU, 0x3dd71ecdbe27e616U, 0x3e1049bb3e7e78baU,
  0x3d8daa233e2a85afU, 0x3e808c29be59be65U, 0x3d92e9543d832bc1U, 0xbe44c1a2bdfbd922U,
  0xbdaba0b8be13ca66U, 0xbdb529a63d188eddU, 0xbce4d64b3d3eb294U, 0xbd8f05ef3d188eddU,
  0xbc188edd3cd1c470U, 0x3c857d01bde99ac2U, 0xbe057d013d5b4d5dU, 0x3de4d64bbd188eddU,
  0xbe89105a3e2ba0b8U, 0x3de4d64b3d188eddU, 0x3daba0b8be2e02f4U, 0x3b988eddbe4cfff9U,
  0x3db529a63df323b0U, 0xbd8a4178bc3eb294U, 0x3e1d53543df323b0U, 0xbe5daf993dfcac9eU,
  0xbd64d64bbc988eddU, 0x3e031ac63e70c175U, 0x3d2217cbbdc83b82U, 0xbdc83b82bcd1c470U,
  0xbe8a41783d057d01U, 0x3d51c4703de4d64bU, 0xbce4d64b3e0ca3b4U, 0x3e77e827bd988eddU,
  0xbe64d64b3e07df3dU, 0xbc988eddbe4114d0U, 0xbd80b88a3c988eddU, 0xbe07df3dbe8f05efU,
  0xbe3c50593db529a6U, 0xbe8ca3b43d188eddU, 0x3d3529a63e188eddU, 0xbb988edd3d3eb294U,
  0x3dc83b823d9d5354U, 0xbda6dc42bde011d4U, 0x3c3eb2943d988eddU, 0xbe0a4178bd3529a6U,
  0x3e39ee1d3db529a6U, 0x3e162ca13dc3770bU, 0x3e26dc42bddb4d5dU, 0xbda6dc423e07df3dU,
  0x3daba0b8bc988eddU, 0xbe39ee1d3be4d64bU, 0xbce4d64b3e5688e7U, 0xbe13ca663d3529a6U,
  0xbdc83b82bcaba0b8U, 0xbe1af118bdb9ee1dU, 0xbe07df3dbc64d64bU, 0xbc857d01be975dbfU,
  0x3dee5f39bd8a4178U, 0x3e6e5f393e0f05efU, 0x3db529a6bd483b82U, 0x3e5688e7bd8f05efU,
  0xbd857d01be0a4178U, 0xbe5426ab3e5daf99U, 0x3e11682abd64d64bU, 0x3d857d01be1d5354U,
  0x3de011d43d8f05efU, 0xbde99ac23e3eb294U, 0xbd8f05ef3d0f05efU, 0x3e2217cb3c188eddU,
  0xbd9d5354U, 0xbe26dc42bdd1c470U, 0xbd3529a6be7cac9eU, 0xbe30652fbe00b88aU,
  0xbd5b2cc43e46a092U, 0xbd121dd83e5b2cc4U, 0x3db2145f3e06b383U, 0xbdffb43aU,
  0x3e08fbfabddb2cc4U, 0x3d48e9093d48e909U, 0xbd76925c3dffb43aU, 0xbcdb2cc43e121dd8U,
  0x3dbb363dbd48e909U, 0xbb121dd8bd520ae6U, 0xbcffb43abc36a54eU, 0x3e6d707fbe4d79f8U,
  0x3d7fb43abe022294U, 0xbdc4581abe48e909U, 0x3d5b2cc43cdb2cc4U, 0x3e569bd53d921dd8U,
  0xbda461933d8d8ce9U, 0xbcffb43abd76925cU, 0xbd6d707fbe7fb43aU, 0x3d48e9093e6fb8f6U,
  0xbdd20ae6bdc4581aU, 0xbd8d8ce9bc7fb43aU, 0x3dd69bd53d921dd8U, 0xbdcd79f83d246193U,
  0xbca461933e68df90U, 0x3dcd79f83bdb2cc4U, 0xbd520ae63da46193U, 0xbdfb234b3d48e909U,
  0x3de8df903d6d707fU, 0x3cc8e9093db6a54eU, 0x3e18f73e3d5b2cc4U, 0x3d9fd0a4bd08fbfaU,
  0xbded707fbc121dd8U, 0xbe0d8ce93bdb2cc4U, 0x3e1d882d3cc8e909U, 0x3e046b0c3e90f99cU,
  0xbdc4581a3ced707fU, 0x3c5b2cc4bd5b2cc4U, 0xbdc4581a3dcd79f8U, 0xbe3d7eb4bdad8370U,
  0xbddfbdb3bca46193U, 0x3c7fb43a3c5b2cc4U, 0xbe58e44dbe8d8ce9U, 0xbd846b0cbd846b0cU,
  0xbd3fc72b3db2145fU, 0x3e80fe593e48e909U, 0xbdcd79f8bbdb2cc4U, 0x3e4d79f83dbfc72bU,
  0x3e32145fbe54535eU, 0xbd48e909bd5b2cc4U, 0x3da461933d96aec7U, 0xbd644ea13d3fc72bU,
  0xbe420fa33dffb43aU, 0x3d36a54e3d1b3fb5U, 0x3d6d707f3d644ea1U, 0x3cdb2cc43e28f282U,
  0xbe3b363d3e0b4472U, 0xbd5b2cc43d08fbfaU, 0xbe2fcbe8be06b383U, 0x3c7fb43a3ddb2cc4U,
  0xbd08fbfa3ded707fU, 0xbd2d83703e1b3fb5U, 0x3e87d7bf3de8df90U, 0xbe121dd83e0b4472U,
  0x3d3b54e6bbf9c688U, 0x3db0eca1bd5a8db7U, 0x3e26845b3d45bd2cU, 0x3e215038bdabb87eU,
  0xbda150383e0c7fadU, 0x3dea2a203dd02572U, 0x3d79c688bdfefaabU, 0xbc26845bbe2bb87eU,
  0xbe64f5fdbe3386b2U, 0x3e555994be26845bU, 0xbe04b178be144de1U, 0xbd96e7f23e64f5fdU,
  0x3dc089093e408909U, 0x3dea2a203dea2a20U, 0x3e8898933e2e528fU, 0x3dda8db7bddfc1daU,
  0x3e16e7f23d3b54e6U, 0xbe0f19be3e215038U, 0x3e0c7fad3e7c609aU, 0xbd1c1c15bbf9c688U,
  0xbc91b3d03dbb54e6U, 0x3e26845b3e91b3d0U, 0xbd30eca1bcd02572U, 0x3ce4f5fd3d8c7fadU,
  0x3d9c1c15be889893U, 0x3c79c688bc26845bU, 0xbe144de1bdda8db7U, 0x3d5a8db7bd79c688U,
  0xbc26845bbc79c688U, 0xbc79c688bcd02572U, 0xbd64f5fdbe5fc1daU, 0x3e074b8a3c26845bU,
  0x3e0f19be3e3deef8U, 0x3d11b3d03cd02572U, 0x3da15038bbf9c688U, 0x3e5a8db73ce4f5fdU,
  0xbe04b1783e57f3a6U, 0xbe3386b23d91b3d0U, 0x3d821767bea53752U, 0x3d64f5fd3e5fc1daU,
  0x3da6845b3d821767U, 0xbd79c688bd11b3d0U, 0x3e074b8abce4f5fdU, 0x3d6f5e433cd02572U,
  0xbd8217673da6845bU, 0x3dabb87e3dc08909U, 0x3e30eca13e074b8aU, 0xbc79c6883dcaf14fU,
  0x3ba6845bbd3b54e6U, 0x3d821767bd9c1c15U, 0xbc26845b3da6845bU, 0xbd5a8db73d874b8aU,
  0x3df492663da15038U, 0x3da6845bbdb620c3U, 0x3c79c688bd11b3d0U, 0x3df9c688bd5a8db7U,
  0x3e3620c300000000U, 0xbe11b3d03d5a8db7U, 0x3db620c33e26845bU, 0xbe2150383d5a8db7U,
  0xbe5fc1dabe11b3d0U, 0x3dc089093e5fc1daU, 0x3d3b54e6be144de1U, 0x3e85fe81bba6845bU,
  0xbd0fd65abde19024U, 0xbb9ce9d6be3a55aeU, 0x3d0fd65a3da37394U, 0x3d894c9bbe3a55aeU,
  0xbda37394be3a55aeU, 0xbca9fd53bcde4b45U, 0x3e19a4f7bd7efbfcU, 0x3c6b5ec13b9ce9d6U,
  0x3ddb0666bd166018U, 0xbe01206ebe251604U, 0xbe19a4f7bdd7c186U, 0x3de819e2be44244cU,
  0x3d3710cfbe26b874U, 0x3ad137c8be1178c9U, 0x3d99a4f73e131b39U, 0xbcc4244c3d4aae0aU,
  0xbda6b8743d8c917bU, 0xbe1b47673d78723eU, 0x3d64d5033d71e880U, 0xbd0fd65aU,
  0x3c5137c83c1ce9d6U, 0xbd5e4b45be1178c9U, 0xbe2516043d1ce9d6U, 0x3d7efbfc3e1178c9U,
  0x3d1660183da9fd53U, 0xbd094c9b3dd7c186U, 0xbd1ce9d63da9fd53U, 0xbe3f3cfdbcc4244cU,
  0x3c9ce9d6be38b33fU, 0xbdc7692bbe4281dcU, 0xbd3710cfbdd47ca7U, 0xbde190243d166018U,
  0x3d6b5ec1be1178c9U, 0xbe38b33f3bd137c8U, 0xbe4aae0abd7efbfcU, 0xbe237394bd8fd65aU,
  0xbe1178c9be0aef0bU, 0xbd8607bcbceb5ec1U, 0x3cc4244cbdc0df6dU, 0xbde4d503be3bf81eU,
  0x3deea3a0be4f9559U, 0x3d7efbfcbb5137c8U, 0x3da373943d894c9bU, 0xbdeea3a03deb5ec1U,
  0xbdc0df6d3ca9fd53U, 0x3dc0df6dbd894c9bU, 0x3cde4b453e0fd65aU, 0xbe14bda83d894c9bU,
  0xbdd7c1863d1ce9d6U, 0xbe38b33fbe21d125U, 0x3ddb0666bdd7c186U, 0xbdd137c83dfbb71dU,
  0xbe0c917bbad137c8U, 0xbd0fd65a3dbd9a8dU, 0x3e0fd65a3d82c2ddU, 0x3d78723ebdb3cbf0U,
  0x3bd137c83dc0df6dU, 0xbda9fd533da02eb5U, 0x3d44244cbc6b5ec1U, 0xbd57c1863d931b39U,
  0xbdcdf2e9be45c6bbU, 0x3dd137c8bdf1e880U, 0x3d4aae0a3e1ce9d6U, 0x3e1178c93dd137c8U,
  0x3da0e2dabd88226aU, 0x3e01f24ebd81f24eU, 0x3cf784633dfdb47fU, 0xbe61dc01be4c339fU,
  0x3d5ec3f33cc60383U, 0x3df784633cad4312U, 0xbd2d43123d5263bbU, 0xbe33732e3dc60383U,
  0x3e5263bbbe1ab2beU, 0xbe1482a23e778463U, 0x3deb242b3e715447U, 0x3e0e5286bdd893d7U,
  0x3e5893d7be20e2daU, 0xbe01f24ebe20e2daU, 0xbd7784633d6b242bU, 0x3e557bc93e778463U,
  0xbdeb242bbd08226aU, 0x3d9482a2be4c339fU, 0x3d9482a2bd2d4312U, 0x3dd893d7bd81f24eU,
  0x3df78463bc778463U, 0xbc1482a2bea586efU, 0x3da0e2da3e4f4badU, 0x3cdec3f33d9482a2U,
  0x3de4f40fbcdec3f3U, 0x3e08226a3e61dc01U, 0xbd7784633e2712f6U, 0xbd9482a23d81f24eU,
  0xbe01f24e3d9482a2U, 0x3dcc339f3dcc339fU, 0x3e5893d73d88226aU, 0xbdcc339fbdb3732eU,
  0xbea712f6be8fde8dU, 0x3cf784633cdec3f3U, 0x3e806647bdc60383U, 0xbd9ab2be3e0b3a78U,
  0xbe778463U, 0x3d08226a3d6b242bU, 0xbe20e2da3e837e55U, 0xbe7a9c71be715447U,
  0x3c778463be8cc67fU, 0x3d8e5286be116a94U, 0xbe460383bec4777cU, 0xbe6b242b3d88226aU,
  0x3cf784633da0e2daU, 0x3deb242b3d9ab2beU, 0x3dfdb47fbcdec3f3U, 0x3dfdb47f3dd263bbU,
  0x3de4f40fbe179ab0U, 0xbdd263bbbea89efdU, 0xbe0e52863ddec3f3U, 0xbe2d4312bd5ec3f3U,
  0xbe7a9c71bcdec3f3U, 0x3cc60383bdfdb47fU, 0xbdad4312bd5263bbU, 0xbdd263bbbd5263bbU,
  0xbe08226abcad4312U, 0xbe050a5cbcf78463U, 0xbe5263bbbe61dc01U, 0x3d9ab2be3e050a5cU,
  0xbe305b203e89ae71U, 0x3d2d4312bd5ec3f3U, 0x3e050a5c3c460383U, 0xbcc603833e746c55U,
  0x3b1d0a59be06f4e5U, 0x3e15adddbe21f2acU, 0x3c1d0a59bd8e5161U, 0x3e995c1b3d89690eU,
  0xbcb0aba43e444cefU, 0x3d6b8f86bd89690eU, 0x3ceb8f86bceb8f86U, 0x3cd7ee3bbda1f2acU,
  0xbdf5602bbdf5602bU, 0xbdbf649d3d3a7c4aU, 0x3c89690e3ceb8f86U, 0x3d89690e3e982206U,
  0xbd26daffbdce1d95U, 0xbd1d0a59bd1d0a59U, 0x3e1822063c6b8f86U, 0xbd89690e3dfa487eU,
  0xbdc44cef3dabc351U, 0xbe5a62643cd7ee3bU, 0x3e1a96303e1339b4U, 0x3dd305e8bdc44cefU,
  0x3de1bee0bd9339b4U, 0xbdf077d83d61bee0U, 0xbd89690e3e3f649dU, 0xbd09690e3dc44cefU,
  0x3e0e5161bd9339b4U, 0x3e7a487ebd444cefU, 0x3e2e377bbd09690eU, 0x3e15addd3db593f7U,
  0xbe0bdd37U, 0xbe331fce3da6daffU, 0xbddcd68d3d30aba4U, 0x3d09690e3e3cf073U,
  0x3beb8f863d1d0a59U, 0x3d1d0a593d8e5161U, 0x3e444cefbe10c58aU, 0x3ceb8f863df5602bU,
  0xbdb593f73e1339b4U, 0xbe3593f73dabc351U, 0x3d57ee3bbde6a733U, 0x3e4935423e493542U,
  0x3d1339b43cff30d1U, 0x3db0aba43e30aba4U, 0xbbeb8f863e9bd044U, 0xbe10c58abe1d0a59U,
  0x3d9d0a593c1d0a59U, 0xbe64330abe75602bU, 0xbd8e51613deb8f86U, 0xbe0e51613d75602bU,
  0xbcff30d13dba7c4aU, 0xbe10c58a3e10c58aU, 0x3e820c92bb9d0a59U, 0xbe2466d53d30aba4U,
  0x3e8bdd373d6b8f86U, 0x3d1d0a593c1d0a59U, 0xbcff30d13d1339b4U, 0x3e2466d5be5f4ab7U,
  0xbdd305e8bda6daffU, 0xbc9d0a593da6daffU, 0x3e89690e3d09690eU, 0x3e3f649dbdd7ee3bU,
  0x3df077d8bde6a733U, 0x3c444cefbde6a733U, 0xbdfa487ebe820c92U, 0x3e89690ebe8e5161U,
  0xbd928761be128761U, 0xbdd30063bd530063U, 0x3dd30063bdc74779U, 0xbd9287613e733ce3U,
  0xbe03e03e3e416b05U, 0xbdf04ea93e2fd5a7U, 0x3ca41cbebe6d606fU, 0x3e270af9be29f933U,
  0xbe80f2033e1b5210U, 0xbcea7235bd8caaecU, 0x3da9f9333dafd5a7U, 0x3d9863d53d762b1eU,
  0xbdc16b053d241cbeU, 0x3e55ee9dbc8caaecU, 0x3d1863d5bc6a7235U, 0x3e1863d53d8caaecU,
  0x3e32c3e23e884595U, 0xbdf04ea93e61a786U, 0x3d5300633e86ce78U, 0x3e61a786be38a056U,
  0xbd6a72353e1b5210U, 0x3e2fd5a73c8caaecU, 0xbe7ef5ccbe15759bU, 0x3df04ea9bd474779U,
  0xbcea7235be80f203U, 0x3ddeb94cbd8caaecU, 0xbe29f933be6783faU, 0x3d928761bda9f933U,
  0xbcbb8e903e03e03eU, 0xbc6a72353d2fd5a7U, 0x3d928761beba1773U, 0x3e212e843e270af9U,
  0xbd8caaec3d762b1eU, 0x3e9e404abdafd5a7U, 0x3d9863d5bc3b8e90U, 0x3e6783fabe4a35b4U,
  0xbda41cbe3e241cbeU, 0xbeafd5a73c3b8e90U, 0x3e03e03ebc8caaecU, 0x3e4d23eebcbb8e90U,
  0x3e80f2033b3b8e90U, 0x3c3b8e90bd474779U, 0x3e89bcb23de495c0U, 0x3ddeb94cbe1863d5U,
  0x3e704ea93cbb8e90U, 0xbe416b05be1e404aU, 0xbcea72353e501228U, 0x3e128761bd86ce78U,
  0x3cbb8e90bd530063U, 0xbca41cbebc6a7235U, 0x3d2fd5a7bda41cbeU, 0x3e2ce76d3e06ce78U,
  0xbdc74779bd928761U, 0xbd0caaecbdf04ea9U, 0x3e32c3e23dcd23eeU, 0x3e928761bd6a7235U,
  0x3e58dcd7be474779U, 0x3e762b1e3d1863d5U, 0x3e5300633da9f933U, 0xbdea7235bd80f203U,
  0x3dd300633bbb8e90U, 0xbd241cbe3e35b21cU, 0x3e00f2033c6a7235U, 0x3e474779bd8caaecU,
  0xbe912e06be38c637U, 0x3d489cb0bde30226U, 0x3e45f8f13c93d1c5U, 0x3de849a400000000U,
  0x3cfd679b3d0942c9U, 0xbcd32bacbdae373bU, 0xbe605e67bea4fa1eU, 0xbe7ac3dc3e1e60c1U,
  0xbd8942c93e01578dU, 0xbc532bacbe1bbd02U, 0x3dc35532be7ac3dcU, 0x3d8e8a473e13d1c5U,
  0x3e2e373b3e0be688U, 0xbdb8c6373e3e0db4U, 0x3d72d89f3ba8efbdU, 0xbdb37eb93e489cb0U,
  0x3d1e60c1bb28efbdU, 0x3d6849a4be38c637U, 0x3da3a83f3e65a5e5U, 0x3e489cb03d5dbaa8U,
  0x3cd32bacbd72d89fU, 0xbd489cb03ea79dddU, 0xbdcde42ebb28efbdU, 0xbe55cf6b3e23a83fU,
  0xbd7d679bbdb8c637U, 0x3e7d679bbd72d89fU, 0xbca8efbdbe967584U, 0xbdc35532bb28efbdU,
  0x3e58732abd93d1c5U, 0xbea79ddd3bfd679bU, 0xbc7d679bbe362278U, 0x3e13d1c53e38c637U,
  0x3d72d89fbd337eb9U, 0x3c93d1c53e069f0aU, 0x3e069f0abe605e67U, 0x3e7ac3dcbdbe0db4U,
  0xbde849a43e81578dU, 0xbc28efbdbdc89cb0U, 0xbd1e60c1U, 0x3e8005ad3d1e60c1U,
  0x3d0942c93e55cf6bU, 0x3d28efbd3e9a6b23U, 0x3ce849a43e30dafaU, 0x3d8942c93e3b69f6U,
  0xbe362278bd6849a4U, 0xbe9523a5be0e8a47U, 0x3e28efbd3dbe0db4U, 0xbe01578d3e4b406fU,
  0xbe01578d3e435532U, 0xbd9e60c13e1e60c1U, 0x3e8942c93e489cb0U, 0xbca8efbdbe8005adU,
  0x3dd32bacbe532bacU, 0xbe8e8a473d0942c9U, 0x3d8e8a47be337eb9U, 0xbe40b173be210480U,
  0xbe5b16e9bce849a4U, 0xbe83fb4c3e5b16e9U, 0xbc532bac3dae373bU, 0x3e489cb03e40b173U,
  0x3d489cb0bd1e60c1U, 0xbdfd679bbe87f0eaU, 0xbe167584be8a94a9U, 0x3e757c5ebd93d1c5U,
  0xbd7b881ebdbf2a02U, 0x3e5fdcfcbca0faf4U, 0xbd0cdb96be4431daU, 0xbc20faf43e3ca616U,
  0xbe5349603dce4189U, 0xbdfb881e3e329667U, 0x3c8cdb96be351a53U, 0xbe8915b43d02cbe6U,
  0x3d71786ebe41adeeU, 0xbdf68046bbf1786eU, 0x3d96eb45be3f2a02U, 0x3d02cbe63e2886b8U,
  0x3e3a222abcb51a53U, 0xbd82cbe6bd3f2a02U, 0x3e2602ccbd87d3beU, 0x3d16eb453dec7097U,
  0xbe237ee03d5d5910U, 0x3ba0faf4bcb51a53U, 0x3e8691c83d0cdb96U, 0xbd6768bfbe87d3beU,
  0xbddd59103b20faf4U, 0xbe6260e73e379e3fU, 0xbd2b0aa33e5d5910U, 0xbdb0127b3c4939b1U,
  0x3d5349603d351a53U, 0x3e6c7097bcb51a53U, 0x3e64e4d3be1bf31dU, 0x3d3f2a023e2602ccU,
  0x3cf1786e3d02cbe6U, 0xbd0cdb963e50c575U, 0xbd8cdb96be50c575U, 0x3dec70973e7e0c09U,
  0xbe196f313dba222aU, 0xbdd85138bcc939b1U, 0x3dba222abd534960U, 0x3de260e73df68046U,
  0x3db0127b3e1e7708U, 0x3bf1786ebe0cdb96U, 0x3dab0aa3bd4939b1U, 0x3d9bf31dbd02cbe6U,
  0xbc71786e3da0faf4U, 0x3e0a57aa3e20faf4U, 0x3e7904323e46b5c5U, 0xbe64e4d33e20faf4U,
  0xbe3ca616bdc431daU, 0xbd8cdb96be6768bfU, 0xbd351a53bd5d5910U, 0x3dc939b13e054fd2U,
  0xbe8f5f81bd7b881eU, 0x3de260e7bdab0aa3U, 0x3e196f313e8e1d8cU, 0x3b20faf4bdfb881eU,
  0x3e55cd4cbe0a57aaU, 0xbe8cdb96bc8cdb96U, 0x3d87d3bebe196f31U, 0xbe4431dabe2b0aa3U,
  0xbe146759bdb0127bU, 0xbe996f313e6c7097U, 0x3e8cdb96be146759U, 0x3e5851383da0faf4U,
  0x3e5d5910bdfb881eU, 0x3de768bf3ca0faf4U, 0xbdf68046be3f2a02U, 0xbca0faf4be9fb8feU,
  0xbd1f366c3d13d71bU, 0x3e7a30f2bde37251U, 0x3e7a30f2bdddc2a8U, 0x3e71a976bd637251U,
  0xbe7fe09bbc9f366cU, 0xbdffe09bbe1986c3U, 0x3dc704063c35f50dU, 0x3b35f50d3d1f366cU,
  0xbd82c8223e2d6d91U, 0xbe16aeef3c35f50dU, 0xbd82c822be581300U, 0x3b35f50d3d82c822U,
  0x3c9f366cbea37a2aU, 0x3dffe09bbdbba4b6U, 0x3d8877ca3d8e2772U, 0xbe24e614bcccb3afU,
  0xbe27bde83d93d71bU, 0xbd41545ebe74814aU, 0x3e8e27723c8877caU, 0x3d0877cabd8877caU,
  0xbcb5f50d3e02c822U, 0xbead6d91be220e40U, 0x3e0b4f9e3dc1545eU, 0xbe3e7c8a3cccb3afU,
  0xbda4e6143c637251U, 0x3e9986c3be6bf9cdU, 0x3e6921f93d35f50dU, 0x3e02c8223e3e7c8aU,
  0x3e1986c3bdfa30f2U, 0xbb35f50d3eb48923U, 0xbd35f50d3bb5f50dU, 0x3dbba4b63e470406U,
  0x3d0877cabe10ff47U, 0xbd9f366cbbb5f50dU, 0xbce37251bd41545eU, 0xbd41545e3e3ba4b6U,
  0x3e220e403dfa30f2U, 0x3e4cb3afbdd81300U, 0xbe24e6143dc70406U, 0x3e6921f9be331d39U,
  0xbe6921f9bd82c822U, 0x3eaed97b3e41545eU, 0xbc0877ca3df4814aU, 0xbdb5f50dU,
  0xbdddc2a8be16aeefU, 0xbe3ba4b63d1f366cU, 0x3dc1545ebcccb3afU, 0x3d4cb3afbde921f9U,
  0xbe6921f93db04565U, 0xbb35f50d3e0e2772U, 0xbd5813003e10ff47U, 0xbe6921f9bd637251U,
  0xbdd813003d9986c3U, 0x3c0877cabc35f50dU, 0x3e89e3b4bcccb3afU, 0xbe71a9763de37251U,
  0xbe7a30f23e8e2772U, 0xbe10ff473e6ed1a1U, 0x3d41545ebbb5f50dU, 0x3e664a253e0b4f9eU,
  0xbc637251bdbba4b6U, 0x3e0b4f9ebe926b31U, 0x3d1f366c3e35f50dU, 0x3d0877cabdb04565U,
  0xbccff180be3fb2a2U, 0xbc9bf520be8bb642U, 0x3de370243d76eec8U, 0x3d01f6f03d42f268U,
  0xbd8ef6083dcff180U, 0xbe157594U, 0xbd957594be706f3cU, 0xbd28f438be157594U,
  0xbe60305e3e60305eU, 0xbd01f6f03d81f6f0U, 0x3e0ef6083da8f438U, 0xbd69efb03e66afeaU,
  0xbc81f6f03e971577U, 0x3e3fb2a23e46322eU, 0x3e80570d3b4ff180U, 0x3da274ac3c4ff180U,
  0x3dc2f2683e76eec8U, 0x3cb5f3503e1235ceU, 0x3e1235ce3ec6322eU, 0x3c1bf5203d957594U,
  0x3e157594bd76eec8U, 0x3e8a165f3ece519dU, 0xbe0536b6bdbc72dcU, 0x3e9235ce3dd6710cU,
  0x3e2c33fe3d28f438U, 0x3c4ff180bc81f6f0U, 0xbcb5f350be393316U, 0xbdc2f2683d88767cU,
  0xbc81f6f0bd69efb0U, 0xbd01f6f03d8ef608U, 0x3d01f6f0bd9bf520U, 0x3e3fb2a23e01f6f0U,
  0x3de9efb03dfd6e54U, 0x3e0bb6423d1bf520U, 0x3dd6710cbd5cf098U, 0x3e08767cbe2274acU,
  0x3da274ac3e637024U, 0xbe60305e3de9efb0U, 0x3e7d6e54be01f6f0U, 0x3e8d56253e157594U,
  0x3e0536b63e56710cU, 0x3e1235ce3da8f438U, 0x3ce9efb03ce9efb0U, 0xbe08767cbe0ef608U,
  0xbce9efb03e4ff180U, 0xbe59b0d2bd957594U, 0x3c81f6f0bdb5f350U, 0x3dbc72dc3df06f3cU,
  0x3e8396d33d69efb0U, 0xbdc2f2683c9bf520U, 0x3e3fb2a23ce9efb0U, 0x3ddcf098bd69efb0U,
  0x3c81f6f03d5cf098U, 0xbd88767c3ce9efb0U, 0xbd957594bd1bf520U, 0x3e8396d3be8396d3U,
  0x3e3c72dcbdaf73c4U, 0x3d69efb03e01f6f0U, 0x3e32b38a3e60305eU, 0x3db5f350be2c33feU,
  0x3d9bf5203ce9efb0U, 0x3dc971f43dd6710cU, 0x3df6eec8bd0ef608U, 0x3e0536b6bc9bf520U,
  0x3e2183bebded8581U, 0x3d7705b93dafc413U, 0x3ce405493da183beU, 0xbce405493be40549U,
  0x3d5104d8bcab03f7U, 0x3dd104d83e82a307U, 0x3dd5c4f43d640549U, 0xbddf452d3e050315U,
  0x3e34842fbd5104d8U, 0xbd1803863dc784a0U, 0x3d93436a3e2643daU, 0x3e86331c3e076323U,
  0x3e42c4833b980386U, 0x3e2183bebe36e43dU, 0xbd9803863e61a53bU, 0x3d2b03f73cf705b9U,
  0x3e6b25733e89c331U, 0xbd6d85813ce40549U, 0xbcf705b93d6d8581U, 0x3e1803863e8042f9U,
  0x3e0c233f3db9444bU, 0x3c3e04673db9444bU, 0x3e076323bc850315U, 0xbe4064753d89c331U,
  0xbda643daU, 0x3dc784a03ce40549U, 0x3d5a8510bcd104d8U, 0x3e5825023e55c4f4U,
  0x3dd104d8bdd5c4f4U, 0x3e96d37f3e452492U, 0xbd050315bdb9444bU, 0x3e076323be09c331U,
  0xbe3e0467be55c4f4U, 0x3dbe04673e2b03f7U, 0x3cd104d83ded8581U, 0xbcbe04673e13436aU,
  0xbe7965c8bc850315U, 0x3de40549bde40549U, 0x3e49e4ae3c3e0467U, 0xbdbe04673d89c331U,
  0x3de8c565be0042f9U, 0xbde405493de40549U, 0xbd850315bb980386U, 0xbd93436abd8042f9U,
  0xbe2fc4133ddf452dU, 0x3e4524923dd104d8U, 0xbde8c5653cbe0467U, 0x3e8503153e2fc413U,
  0xbdafc413be1cc3a2U, 0xbe13436abe74a5abU, 0x3b980386bd9cc3a2U, 0xbdbe0467bda643daU,
  0xbe2d6405bd640549U, 0x3e050315be2643daU, 0x3dc784a03e39444bU, 0x3e4ea4ca3d7705b9U,
  0xbe61a53b3c180386U, 0xbe0042f9be2643daU, 0xbc640549bde8c565U, 0x3cbe04673d9cc3a2U,
  0xbdafc4133e2fc413U, 0x3e13436a3e23e3ccU, 0x3e61a53b3dcc44bcU, 0x3e2d64053ded8581U,
  0xbe312c4d3e7feaa8U, 0xbe44dbe43db12c4dU, 0x3db12c4d3d8eb905U, 0xbdceb3afbe161adeU,
  0x3c1d7cb6bdd88b7aU, 0x3dac40673cffeaa8U, 0xbd4eb3af3e04e13aU, 0x3d7612dd3cffeaa8U,
  0x3e1890d0bd3b0418U, 0xbc89cd1f3dbb0418U, 0x3e5fed533e24de8fU, 0xbdc9c7c9bb9d7cb6U,
  0x3e13a4ebbe0eb905U, 0xbe9890d03ddd7760U, 0xbd1d7cb6bde74f2bU, 0xbcffeaa83e539f95U,
  0x3df126f7bdc4dbe4U, 0x3e674f2bbe9c41bdU, 0x3c1d7cb6be9269f1U, 0xbdc9c7c9bc89cd1fU,
  0xbdb12c4dbd312c4dU, 0xbe826b473cd88b7aU, 0x3dceb3af3e312c4dU, 0xbc89cd1f3d588b7aU,
  0x3dac40673e2eb65aU, 0x3dceb3afbe09cd1fU, 0x3e5d7760bd1d7cb6U, 0x3c6c3b11bd4eb3afU,
  0x3d84e13a3d89cd1fU, 0x3e5129a23de74f2bU, 0xbd9890d03d09cd1fU, 0xbcc4dbe4bcc4dbe4U,
  0x3d09cd1fbd13a4ebU, 0xbdec3b113e0eb905U, 0xbe312c4dbe24de8fU, 0xbdd39f953e13a4ebU,
  0x3d84e13a3b1d7cb6U, 0x3e9269f1be6eb104U, 0xbe1b06c33dc4dbe4U, 0x3dd39f95bdc4dbe4U,
  0xbd93a4eb3e4c3dbcU, 0x3e026b473da2689cU, 0x3d8eb9053d4eb3afU, 0x3cc4dbe4be3b0418U,
  0xbe49c7c9be89cd1fU, 0x3d44dbe43df126f7U, 0x3de74f2bbe0c4312U, 0x3d8eb905be0c4312U,
  0xbe83a640bd1d7cb6U, 0x3e7feaa83cec3b11U, 0x3e29ca743d13a4ebU, 0xbd588b7abd6c3b11U,
  0x3d7612ddbd6c3b11U, 0x3df126f7bc44dbe4U, 0x3e4265f1bd7612ddU, 0xbddd77603d44dbe4U,
  0xbdd39f953e49c7c9U, 0x3dd39f953da2689cU, 0xbe04e13a3e07572dU, 0xbd09cd1fbe22689cU,
  0x3e2eb65a3da75481U, 0x3dac4067be83a640U, 0xbdec3b113dbfeffeU, 0xbe6c3b113dd88b7aU,
  0x3cf5db373ddf8178U, 0x3dcebe28bea7a11aU, 0xbe9412923d11475bU, 0x3d11475b3d8bb0ebU,
  0xbe3599313e861a7bU, 0xbe8a4b4fbe84b4dfU, 0xbdeaae57bd8bb0ebU, 0x3dc927b8bd11475bU,
  0x3d4927b8bd1c743aU, 0xbd5f8178be3dfad9U, 0x3e386469be061a7bU, 0xbe3002c13c32cdf9U,
  0x3e465c81bd32cdf9U, 0xbcf5db373dd9eb08U, 0x3d80840b3c061a7bU, 0xbe5cb6403c5f8178U,
  0xbe3dfad9be16ddcaU, 0xbda20aaa3e1f3f72U, 0xbc061a7b3dfb71a7U, 0xbdd9eb08bdf044c7U,
  0xbdeaae57be78a66fU, 0x3ddf81783e78a66fU, 0xbdeaae57bd11475bU, 0xbc32cdf9bdfb71a7U,
  0xbe8e7c23bc5f8178U, 0xbe034f43beb1685dU, 0x3c5f8178be75db37U, 0x3da20aaabc061a7bU,
  0xbea0a50e3e3b2fa1U, 0xbd3dfad93da7a11aU, 0xbdad3789bcdf8178U, 0xbbb2cdf9bcc927b8U,
  0x3e80840b3e386469U, 0x3dd454983cc927b8U, 0xbdc391493d27a11aU, 0xbe9dd9d63e4bf2f0U,
  0x3e2d37893d6aae57U, 0x3c9c743a3dfb71a7U, 0x3e061a7b3e141292U, 0xbe3002c1bd3dfad9U,
  0xbd9c743a3cc927b8U, 0x3e624caf3e386469U, 0x3db864693dcebe28U, 0xbe4927b8be16ddcaU,
  0x3d75db373c061a7bU, 0xbd80840bbe518960U, 0x3ddf8178be571fd0U, 0xbd75db37be3dfad9U,
  0xbd8bb0eb3e1f3f72U, 0x3e00840b3d8bb0ebU, 0x3e034f433e034f43U, 0x3ddf81783dd9eb08U,
  0x3d27a11abe061a7bU, 0xbe80840b3e571fd0U, 0x3df5db373ddf8178U, 0x3e24d5e23d061a7bU,
  0x3d80840b3e439149U, 0xbd80840b3e19a902U, 0x3e84b4df3dd45498U, 0x3dc39149bd80840bU,
  0xbd5454983d96ddcaU, 0xbd27a11abdbdfad9U, 0xbe0bb0ebbe1f3f72U, 0x3d3dfad9be624cafU,
  0xbcae0ef13d535b4aU, 0xbe232e02be16bf3aU, 0xbda1a0293da7d78dU, 0xbb46ec82bc78a7a2U,
  0x3d953161bdfbc354U, 0x3e1531613dd35b4aU, 0x3dae0ef13d5fca12U, 0x3cc6ec82U,
  0xbe1215af3e1087d6U, 0x3dfedf06bdec38daU, 0xbdb12aa3be13a388U, 0xbe0d6c243da7d78dU,
  0xbe0bde4b3d2e0ef1U, 0xbdec38dabc2e0ef1U, 0x3d028b353dca0834U, 0x3d8bde4b3dbd996cU,
  0x3cc6ec82bd2e0ef1U, 0x3d984d133d85a6e7U, 0x3e2af33f3b953161U, 0xbe2f9cca3d9215afU,
  0x3da4bbdb3e0734c0U, 0xbc5fca123d9e8477U, 0xbd8bde4bbd40b51eU, 0xbd028b353da7d78dU,
  0xbe13a3883daaf33fU, 0xbd3a7dba3dfbc354U, 0xbe184d13be1215afU, 0x3d0ef9fdbe0a5072U,
  0xbd2e0ef1bdc3d0d0U, 0xbbf8a7a2bd8bde4bU, 0xbd3a7dbabe08c299U, 0xbe43d0d03dfbc354U,
  0x3e1cf69ebd4d23e6U, 0xbd21a029bdb12aa3U, 0x3dd03f98bd953161U, 0xbdae0ef1bd828b35U,
  0xbac6ec82bd88c299U, 0x3d3a7dba3d9215afU, 0xbd3446553ac6ec82U, 0xbdaaf33f3d660176U,
  0xbd828b35be04190eU, 0xbdbd996cbe0bde4bU, 0xbd344655bdae0ef1U, 0x3ddcae60bdbd996cU,
  0x3e08c2993cdfca12U, 0x3b953161bb953161U, 0xbdc0b51ebe2649b4U, 0x3e38efe1bd5992aeU,
  0x3d9b68c5bd828b35U, 0xbe455ea9bb46ec82U, 0xbd9b68c5bdba7dbaU, 0x3c5fca123d984d13U,
  0xbdc3d0d0be232e02U, 0xbdae0ef1bdf8a7a2U, 0x3d535b4a3dae0ef1U, 0xbd535b4abe1b68c5U,
  0xbe43d0d0bdf58bf0U, 0xbe3762073d3a7dbaU, 0x3cec38dabd6c38daU, 0xbdba7dba00000000U,
  0xbd5fca123b46ec82U, 0x3de2e5c43d3a7dbaU, 0x3bc6ec823c5fca12U, 0xbe27d78dbd6c38daU,
  0x3e422bd93cba6789U, 0xbc788a0c00000000U, 0xbe49f02abd5978cbU, 0x3e4f1db53d3a6789U,
  0x3e4f1db5be51b47aU, 0x3c25b15dbe18bf82U, 0x3e666aa63d44c29fU, 0x3e86a01cbe4c86efU,
  0x3d25b15dbdc9f02aU, 0x3e4759643e32a339U, 0x3e1391f73d90fb32U, 0x3e0936e1be44c29fU,
  0xbd4f1db53d6e2ef6U, 0x3da083d23de9016bU, 0xbc90fb32be475964U, 0xbba5b15dbe5978cbU,
  0xbd9628bd3dd978cbU, 0xbde9016bbc25b15dU, 0xbe9f3870bdb539feU, 0xbd9b56483e25b15dU,
  0xbe1ded0d3d6e2ef6U, 0x3dcf1db53d1b5648U, 0x3e1b5648bdf88a0cU, 0x3e017291bcba6789U,
  0xbe63d3e0be3f9514U, 0xbd44c29f3d5978cbU, 0xbe18bf823e613d1bU, 0x3c4f1db53ce3d3e0U,
  0x3dc4c29fbd63d3e0U, 0xbd10fb32bd788a0cU, 0xbe18bf82be1628bdU, 0x3cba67893da083d2U,
  0x3e475964bd8bcda7U, 0x3d9b56483ccf1db5U, 0xbc788a0c3ba5b15dU, 0xbd1b5648be040956U,
  0xbd44c29f3e18bf82U, 0x3bf88a0c3dc9f02aU, 0xbccf1db53de9016bU, 0xbb25b15d3e817291U,
  0x3e1ded0d3da083d2U, 0xbea465fb3db00c73U, 0x3ddea6563e1ded0dU, 0x3d1b56483dc4c29fU,
  0x3e4f1db53e8a8244U, 0xbd9b5648bdc4c29fU, 0x3e1391f7be69016bU, 0xbd3a67893d9628bdU,
  0x3e8d190abc90fb32U, 0x3dc9f02a3e3f9514U, 0x3dd44b40be300c73U, 0x3e63d3e0bd90fb32U,
  0x3ca5b15d3dd978cbU, 0xbd25b15d3dfdb797U, 0xbe1628bd3e06a01cU, 0x3e5978cb3e2adee8U,
  0x3de3d3e03d5978cbU, 0x3e3f95143e1628bdU, 0xbdd44b403d8bcda7U, 0xbe18bf82bde3d3e0U,
  0x3db539febe2083d2U, 0x3da083d23d86a01cU, 0x3c788a0cbcf88a0cU, 0x3e3f9514bd4f1db5U,
  0xbcb1b0093d9b7a08U, 0x3c9b7a08bc31b009U, 0x3cf4520d3dd88e8cU, 0x3e74520dbbb1b009U,
  0xbdc7e60b3df9df8dU, 0xbe295bc9bd69370cU, 0xbe2c2289be42588aU, 0x3e0544073bb1b009U,
  0xbe880ac7bdac2289U, 0x3d3ccb0abe1325c8U, 0xbda10789bd74520dU, 0xbdeec48d3c9b7a08U,
  0xbe18b3483d105f08U, 0x3e905f083d105f08U, 0x3c31b009bdeec48dU, 0x3e3f91ca3e23ce49U,
  0xbda695093e718b4dU, 0xbea531a93c054407U, 0x3c5e1c0c3e3ccb0aU, 0x3de3a98c3b31b009U,
  0x3d5e1c0cbdbccb0aU, 0x3d47e60b3de3a98cU, 0xbe63a98c3bb1b009U, 0xbd5e1c0cbc854407U,
  0xbdb73d8abe63a98cU, 0xbc31b0093dde1c0cU, 0xbe0544073c31b009U, 0xbdf9df8d3e4d738bU,
  0xbc31b009bd7f6d0eU, 0x3c9b7a083e054407U, 0x3c5e1c0cbd105f08U, 0xbdf9df8d3cde1c0cU,
  0x3da107893e4aaccbU, 0x3e74520dbd269509U, 0xbd69370c3e3ccb0aU, 0x3e0ad1873d3ccb0aU,
  0xbdde1c0c3d9b7a08U, 0xbe8ad1873e23ce49U, 0x3e027d47be974fe8U, 0x3dcd738b3e23ce49U,
  0x3e2c22893d95ec88U, 0x3deec48dbd854407U, 0xbd9b7a083e718b4dU, 0x3e1325c83d53010bU,
  0x3e2107893e295bc9U, 0xbcf4520dbe3f91caU, 0x3d5e1c0cbd105f08U, 0x3e0ad1873db73d8aU,
  0x3e9fa428bbb1b009U, 0x3d74520dbc31b009U, 0x3d95ec883d9b7a08U, 0x3e66704cbdf9df8dU,
  0x3d8544073e0ad187U, 0xbe588e8c3d905f08U, 0x3cf4520d3d269509U, 0x3da10789be42588aU,
  0xbc054407bdd3010bU, 0x3dde1c0c3e5b554cU, 0x3e080ac7bdcd738bU, 0xbe1325c83d054407U,
  0xbe054407beb04ca9U, 0xbd47e60b3d269509U, 0xbd2695093b31b009U, 0x3d054407bda69509U,
  0xbe30aa65bd607821U, 0x3e00dcaa3dcbaf60U, 0x3e64a0473c264605U, 0xbc0504d13e5613c0U,
  0x3dd827d3bb8504d1U, 0xbd892cf7bd9df5b8U, 0x3cf96908bc68c86eU, 0x3cb6e69f3d892cf7U,
  0x3e19cd923dbf36ecU, 0xbe2a6e2c3e2431f2U, 0x3c8504d1bdbb0ec6U, 0xbe00dcaa3d478739U,
  0x3e38fab3bdbf36ecU, 0x3e15a56b3d3f36ecU, 0x3b8504d1bd478739U, 0xbcc787393db2be79U,
  0x3df96908bcf96908U, 0x3e82f0bebdae9652U, 0x3e0504d1bda21ddfU, 0x3da21ddf3bc78739U,
  0x3e38fab33b8504d1U, 0x3c95a56b3cb6e69fU, 0x3b8504d13e117d45U, 0xbd8d551e3e7d912eU,
  0x3e6cf0943e139158U, 0x3cb6e69f3e607821U, 0x3da646053e30aa65U, 0x3e4787393e38fab3U,
  0x3c4787393e2009cbU, 0xbcf969083d264605U, 0x3e53ffad3e117d45U, 0xbdb6e69f3d1df5b8U,
  0xbce8c86ebd95a56bU, 0xbe4fd7863b0504d1U, 0x3e3f36ecbca64605U, 0x3e2009cb3df96908U,
  0xbe7540e1bd80dcaaU, 0x3e83fac700000000U, 0xbdaa6e2c3e5827d3U, 0x3e628c34be0f6931U,
  0xbe17b97ebd0d551eU, 0x3e5613c0bd68c86eU, 0xbd0d551e3d917d45U, 0xbc478739bdaa6e2cU,
  0xbe2431f2be32be79U, 0x3d0504d13e66b45aU, 0x3e285a183db6e69fU, 0x3e4dc3733d1df5b8U,
  0xbcb6e69fbde8c86eU, 0xbd7969083e0f6931U, 0xbd5827d33b0504d1U, 0xbd36e69fbe1be1a5U,
  0x3c8504d13b8504d1U, 0x3d7118bbbdcbaf60U, 0x3de8c86e3bc78739U, 0x3da21ddfbc95a56bU,
  0x3db6e69f3dc35f13U, 0xbdc35f133b0504d1U, 0x3de8c86ebe3b0ec6U, 0xbc8504d13e34d28cU,
  0x3e2a6e2c3e36e69fU, 0x3e5827d3bd8d551eU, 0x3d917d45be264605U, 0x3e2646053c478739U,
  0x3e5e3b3c3e0e25e3U, 0xbe74411b3d9c29a0U, 0xbda42bc2bcd03780U, 0xbe0e25e3be162806U,
  0x3e2e2e6dbde43cd6U, 0xbe0423383dcc366eU, 0xbdd438913e363090U, 0x3de83de7bdc0333bU,
  0x3ce03bc43e08244aU, 0x3c802227bda82cd3U, 0x3d802227bc202ab1U, 0xbd002227bddc3ab3U,
  0xbe0222b0be2a2d5cU, 0xbe1c29a03de03bc4U, 0xbe3a31a1bbc0333bU, 0x3db43007bd002227U,
  0x3e4a35e6bde83de7U, 0x3c002227be2a2d5cU, 0xbe7e43c6bc802227U, 0xbdd438913d802227U,
  0x3c40333bbe523808U, 0xbd08244abbc0333bU, 0x3dbc3229bde03bc4U, 0x3b802227bdc8355dU,
  0x3e282cd33c202ab1U, 0xbcc0333b3c40333bU, 0xbca02ab13e10266cU, 0x3e042338bc002227U,
  0xbd18288ebd5839a2U, 0x3e18288ebc90266cU, 0xbde43cd63e0c255bU, 0x3e242bc2bbc0333bU,
  0x3d383118bc603bc4U, 0xbe08244abcd03780U, 0xbb8022273e6c3ef8U, 0xbd78422cbdcc366eU,
  0xbdd839a2bdd43891U, 0x3e4c366ebd40333bU, 0x3db02ef6bdb83118U, 0xbe1a2917bd5839a2U,
  0xbdac2de5bcd03780U, 0xbdb02ef63dd43891U, 0xbc603bc4bb802227U, 0x3d18288e3d503780U,
  0xbd94277dbcb02ef6U, 0xbdc8355d3ca02ab1U, 0xbe3e32b2be042338U, 0xbe523808bddc3ab3U,
  0xbe2e2e6dbcb02ef6U, 0xbc40333b3e0222b0U, 0x3d7040093da82cd3U, 0x3c40333bbd002227U,
  0x3bc0333bbd202ab1U, 0xbc202ab13e1226f5U, 0xbe44344c3dc4344cU, 0xbe262c4b3c002227U,
  0xbdc4344c3d603bc4U, 0x3e0623c100000000U, 0xbd282cd33de83de7U, 0xbe0022273d8c255bU,
  0x3e3e32b23d383118U, 0xbe7e43c63e262c4bU, 0xbe643cd63e4e36f7U, 0x3d40333b3e1a2917U,
  0xbd890ffc3dd76243U, 0xbdd762433d50db68U, 0xbdfe8b66bd43cdb1U, 0xbd50db68bdfe8b66U,
  0x3d78048bbe9ca48eU, 0xbd9ca48ebd828921U, 0x3e717db0bd9ca48eU, 0x3dc3cdb1bcd0db68U,
  0x3b50db683ddde91eU, 0xbdc3cdb13e612c8cU, 0xbd890ffc3da32b69U, 0xbd5de91ebecf39b1U,
  0x3d0f96d73cd0db68U, 0xbe36bffbbd9ca48eU, 0x3e196120bdeaf6d5U, 0x3df17db03dfe8b66U,
  0x3e947bfcbe337c8dU, 0x3dd762433e4a548cU, 0xbe50db68be9fe7fbU, 0xbb50db68bcd0db68U,
  0xbd5de91ebe30391fU, 0xbe6af6d5be232b69U, 0x3c9ca48ebd36bffbU, 0x3bd0db68be3a0368U,
  0x3e12da453b50db68U, 0xbe78048b3e876e45U, 0x3deaf6d5bd43cdb1U, 0xbe0289213e161db3U,
  0xbe1ca48e3d828921U, 0x3d1ca48ebd828921U, 0x3e2cf5b23e541ed5U, 0x3d890ffcbc1ca48eU,
  0x3e408a44bd5de91eU, 0x3de46ff93c50db68U, 0x3d0f96d73e612c8cU, 0x3e0f96d73bd0db68U,
  0x3c50db68bec22bfaU, 0x3e161db33d8f96d7U, 0xbd8f96d7bdb6bffbU, 0xbd50db683c828921U,
  0xbe0f96d7bd43cdb1U, 0xbe0f96d73c1ca48eU, 0xbe090ffcbdf17db0U, 0x3db0391f3bd0db68U,
  0xbd828921bc1ca48eU, 0x3d8f96d73e541ed5U, 0xbd0f96d7bbd0db68U, 0xbe1ca48ebd6af6d5U,
  0xbe090ffcbdfe8b66U, 0xbcb6bffb3deaf6d5U, 0xbdb6bffb3deaf6d5U, 0xbd50db683c9ca48eU,
  0xbc9ca48e3e67b367U, 0xbd8f96d73dc3cdb1U, 0x3e266ed700000000U, 0x3e0289213d78048bU,
  0x3d5de91e3d6af6d5U, 0x3dfe8b66be3a0368U, 0xbea189b23e6af6d5U, 0x3ceaf6d5bd5de91eU,
  0x3dca548c3dd76243U, 0x3d1ca48ebb50db68U, 0x3dd762433e266ed7U, 0xbe4d97fa3e337c8dU,
  0x3e56d4f6bdacccafU, 0x3d02c4693d90c72bU, 0xbd69834ebd1ec9edU, 0xbce02c223e10c72bU,
  0x3cf2da7abdd22960U, 0xbc602c22bdd6d4f6U, 0x3dc4269e3e051a34U, 0x3c1572c13dacccafU,
  0xbd9572c13d82c469U, 0xbdbacf72bdcd7dcaU, 0x3da37583bd02c469U, 0xbd69834e3e317846U,
  0xbe09c5cabb9572c1U, 0x3e0c1b95bd317846U, 0x3e02c469bd72da7aU, 0xbd7c31a6be69834eU,
  0xbd4d7dca3e82c469U, 0xbe2f227b3e4b27ffU, 0xbe547f2b3e1ec9edU, 0x3e44269e3da37583U,
  0x3d69834ebd3acf72U, 0x3de4d7b83d0c1b95U, 0x3c602c223de4d7b8U, 0x3e4fd395be1a1e57U,
  0x3d0c1b95be64d7b8U, 0xbddb808cbd3acf72U, 0xbccd7dcabddb808cU, 0x3d282119bd602c22U,
  0x3da37583bdacccafU, 0x3e006e9ebe3d253dU, 0x3d602c22bd82c469U, 0x3c9572c1bdbacf72U,
  0xbd56d4f63e211fb8U, 0x3e3acf72bde4d7b8U, 0x3d0c1b953e41d0d3U, 0x3ddb808c3dee2ee4U,
  0x3dd6d4f63d56d4f6U, 0xbd69834ebd9572c1U, 0x3c82c469be4d7dcaU, 0xbe1572c13e2f227bU,
  0x3e3acf72bd3acf72U, 0xbe9447dc3d9ec9edU, 0xbce02c223e7e8771U, 0x3c3acf72bcf2da7aU,
  0x3dc8d2343db17846U, 0xbdbacf72bd317846U, 0x3e076fff3e2cccafU, 0x3dd22960bca82119U,
  0xbc82c469bd9572c1U, 0x3d8c1b95bd02c469U, 0x3e237583be33ce11U, 0x3e547f2b3e672d83U,
  0xbd90c72bbd69834eU, 0xbc1572c13e3f7b08U, 0x3da82119U, 0x3e1c7422be237583U,
  0x3d3178463d876fffU, 0x3e076fff3dbacf72U, 0xbdfc31a6bd9a1e57U, 0xbe211fb8bdfc31a6U,
  0x3d4d7dcabca82119U, 0x3e051a343d8c1b95U, 0x3dee2ee43dbacf72U, 0xbb1572c13d56d4f6U,
  0xbe3d7e593d14e346U, 0x3d9ba7c9bd589066U, 0xbb589066bcf3a273U, 0xbdfa66f63d075a40U,
  0xbe1f0a0b3ddf54e9U, 0x3e2930d03cbd7e59U, 0x3e36b9d63da26c4dU, 0xbca26c4d3e94e346U,
  0x3d73a273bdbd7e59U, 0xbc875a403c226c4dU, 0xbbd890663e5f54e9U, 0x3ca26c4dbde6196dU,
  0x3ed6df45bdbd7e59U, 0x3e03f7febd73a273U, 0xbddf54e9bdaff553U, 0x3e47a51e3e8246ddU,
  0x3d9ba7c93d9ba7c9U, 0x3e933225bbd89066U, 0x3d226c4d3d14e346U, 0xbca26c4dbd3d7e59U,
  0x3cd890663e075a40U, 0xbe1f0a0b3d3d7e59U, 0x3d94e3463dbd7e59U, 0xbe5890663e5bf2a8U,
  0x3e14e3463e969467U, 0x3e890b613df3a273U, 0x3d8095bd3e1f0a0bU, 0xbc5890663dc442ddU,
  0x3e14e3463daff553U, 0xbd8095bd3ea5ce8eU, 0x3e890b613e969467U, 0xbd94e346bd94e346U,
  0x3e075a40bdbd7e59U, 0x3d4b07603e4442ddU, 0x3dd1cbe3bdc442ddU, 0x3e1181053ea77fafU,
  0x3b589066bdfa66f6U, 0x3ea5ce8ebde6196dU, 0xbe3d7e593e62b72bU, 0xbd14e346be0e1ec3U,
  0xbe85a91f3d9ba7c9U, 0x3ea930d0bd9ba7c9U, 0xbd66196dbd2ff553U, 0xbda26c4d3decddf0U,
  0x3cf3a273bd73a273U, 0xbde6196d3df3a273U, 0x3dbd7e593e2ff553U, 0xbdc442dd3b589066U,
  0xbe4b0760bc875a40U, 0xbda930d0bd8095bdU, 0x3dd1cbe33ec0e09bU, 0xbe1ba7c9be03f7feU,
  0x3e0095bdbdf3a273U, 0x3ddf54e93e14e346U, 0x3e4b0760bdb6b9d6U, 0xbe1845883e99f6a9U,
  0xbca26c4d3eac9311U, 0x3e0e1ec33d94e346U, 0x3dc442dd3c589066U, 0x3e36b9d63e2930d0U,
  0x3e0095bd3e1ba7c9U, 0x3ddf54e9be03f7feU, 0x3e184588bd875a40U, 0x3d075a403dd89066U,
  0xbe4f4a85be16493aU, 0x3e25d5373dee627fU, 0xbd6e627fbc4f4a85U, 0xbe111a903e0e833bU,
  0x3e0e833bbc911a90U, 0xbd3a8fde3e51e1daU, 0xbe3a8fde3e356134U, 0xbc78bfd33de933d6U,
  0x3e5c3f2dbdbfbe88U, 0xbe6e627f3da5d537U, 0x3c25d5373dba8fdeU, 0x3d64052cbe54792fU,
  0x3ba5d537be51e1daU, 0xbe16493abca5d537U, 0xbdba8fde00000000U, 0x3de933d63d25d537U,
  0x3e18e08fbd64052cU, 0xbd44ed32U, 0x3e111a90be095492U, 0xbdded6823de4052cU,
  0x3e3a8fde3c78bfd3U, 0xbd111a90bdee627fU, 0xbce4052c3e286c8cU, 0x3e06bd3d3e8425e8U,
  0xbe111a903dded682U, 0xbd818e93U, 0xbd06bd3d3e25d537U, 0x3bf8bfd3bdcf4a85U,
  0x3dd4792fbe095492U, 0x3dded6823d06bd3dU, 0x3e7391293e7b5728U, 0xbe1e0f39bdf8bfd3U,
  0xbd44ed32be64052cU, 0xbcf8bfd33e0425e8U, 0x3d06bd3d00000000U, 0xbd4f4a853e7dee7dU,
  0xbe30328bbde933d6U, 0xbc4f4a853c78bfd3U, 0x3e018e933e571084U, 0xbb25d537bb25d537U,
  0xbd25d537be233de2U, 0xbd111a90bdb0328bU, 0xbcba8fdebea4898dU, 0xbdfdee7d3dbfbe88U,
  0x3bf8bfd3bbf8bfd3U, 0xbb25d5373bf8bfd3U, 0x3da0a68e3e1b77e4U, 0xbdded682bd59a7d8U,
  0x3cf8bfd3bdca1bdbU, 0x3d6e627f3c78bfd3U, 0xbe54792f3e3d2733U, 0xbe669c81bb25d537U,
  0xbe4cb3303e06bd3dU, 0x3e0e833bbc911a90U, 0x3d8bebe7be0425e8U, 0xbba5d5373e0425e8U,
  0x3c911a903e3a8fdeU, 0x3cba8fdebe3a8fdeU, 0xbd818e933d111a90U, 0x3e7391293e3a8fdeU,
  0x3c911a903d6e627fU, 0x3e356134be1e0f39U, 0x3e4cb330bd30328bU, 0xbe0bebe73e3fbe88U,
  0x3e4351203e39097cU, 0x3dbe2d4e3ccd98c3U, 0xbdb9097c3dfbdb22U, 0xbe299e07bccd98c3U,
  0x3e0ac71d3cb9097cU, 0x3c247a36bd39097cU, 0xbdf1937f3e81c86eU, 0xbdb3e5ab3e1cc47bU,
  0x3e674bdc3d435120U, 0xbe1cc47b3e3153c2U, 0xbce2280a3d85a34cU, 0x3ce2280abe1f5664U,
  0x3e7e6d0bbce2280aU, 0xbd0feaefbdf6b751U, 0xbdb3e5ab3ccd98c3U, 0x3e6c6fad3d950ec1U,
  0xbdf6b751bd0feaefU, 0xbd05a34cbe45e309U, 0x3e883535bc4d98c3U, 0x3d2ec1d9bc247a36U,
  0x3e8d59063dcd98c3U, 0xbdd2bc953e007f7aU, 0x3e69ddc43e9133e3U, 0x3daec1d93e69ddc4U,
  0xbd9a32923e21e84dU, 0xbbf6b751bba47a36U, 0x3e674bdc3e150ec1U, 0xbc4d98c33e554e7eU,
  0x3ccd98c33d2ec1d9U, 0x3db9097c3e57e067U, 0x3e4d98c33ea33141U, 0x3dc874f13db9097cU,
  0xbd807f7a3d247a36U, 0x3d950ec13e45e309U, 0xbc76b7513e083535U, 0x3e52bc953ddd0438U,
  0xbda47a36bd8ac71dU, 0xbc76b751bc4d98c3U, 0x3df6b7513e98e99eU, 0xbdd2bc953dd7e067U,
  0xbe5f96213d435120U, 0xbc76b7513dd2bc95U, 0xbe1a32923dd2bc95U, 0xbc247a363daec1d9U,
  0x3de2280abdbe2d4eU, 0xbb247a363dbe2d4eU, 0x3d247a363c247a36U, 0xbcb9097cbd05a34cU,
  0x3ba47a363c76b751U, 0xbdcd98c33d2ec1d9U, 0x3df6b751bc4d98c3U, 0x3e007f7a3bf6b751U,
  0xbe40bf373dc35120U, 0x3ba47a36bd950ec1U, 0x3c4d98c3bca47a36U, 0xbe1a32923d8ac71dU,
  0xbdf1937f3d807f7aU, 0xbba47a36bdec6fadU, 0x3db9097c3ca47a36U, 0x3e57e0673ba47a36U,
  0x3c4d98c33e5a724fU, 0x3e8c10123d8ac71dU, 0x3e0311633db9097cU, 0x3db9097c3de74bdcU,
  0x3e0445853e0acdb2U, 0xbd29d485bdc0b121U, 0xbd5e15e93db6e4deU, 0xbe4597423d3d6d0bU,
  0x3d092ba7be3542d3U, 0x3d510590be3542d3U, 0x3df8369bbe4f6385U, 0xbdc0b121be1155deU,
  0x3c02a37abcf8369bU, 0x3d578dbdbd92f7e9U, 0x3ca9d4853c9cc42cU, 0x3d02a37abe1b2221U,
  0xbd8c6fbdbb9cc42cU, 0x3d892ba7be17de0bU, 0xbceb26423e163c00U, 0x3c36e4de3dc0b121U,
  0xbd92f7e93e0e11c8U, 0xbcc3f5373da6906fU, 0xbdd105903dd78dbdU, 0xbe163c003da9d485U,
  0x3c5105903d6b2642U, 0x3d578dbdbdf8369bU, 0xbe40b121bd36e4deU, 0x3dd78dbd3e0acdb2U,
  0x3d7ebec8bd649e16U, 0xbdb3a0c8be42532cU, 0x3e0c6fbdbdc7394eU, 0x3ca9d4853cde15e9U,
  0x3db05cb23cf8369bU, 0xbe02a37a3d998016U, 0xbb9cc42c3d6b2642U, 0xbdc7394ebda34c59U,
  0xbcd105903dfb7ab2U, 0x3c82a37abceb2642U, 0xbd649e16bde7e22cU, 0xbe3886e9bd29d485U,
  0xbcb6e4de3cd10590U, 0xbd3d6d0bbd36e4deU, 0x3dd105903dba28f5U, 0xbd36e4debd9cc42cU,
  0xbd29d4853e4a7d64U, 0x3e1499f5be2b7690U, 0x3e21aa4ebdba28f5U, 0xbe02a37a3da34c59U,
  0xbda6906fbd092ba7U, 0xbcc3f537bdfebec8U, 0x3d71ae6f3c510590U, 0xbdde15e9bcde15e9U,
  0xbddad1d3bd578dbdU, 0xbdfb7ab23e092ba7U, 0x3d998016be459742U, 0x3dc7394ebde15a00U,
  0xbc510590bda34c59U, 0x3d36e4de3d82a37aU, 0x3d578dbdbd3d6d0bU, 0xbe05e7903da9d485U,
  0x3e26906f3e0c6fbdU, 0xbcde15e93d3d6d0bU, 0xbd8fb3d33c9cc42cU, 0xbdc3f5373dee6a59U,
  0xbe0fb3d3bda34c59U, 0x3de15a00be0c6fbdU, 0x3dba28f53d963c00U, 0xbd092ba7bd234c59U,
  0x3ca1db2c3d5e8d5dU, 0x3d97bd79bb21db2cU, 0x3e1a44e63cf2c8c2U, 0xbde8ab0f3d7ce675U,
  0x3dedb9e93e0890edU, 0xbdb616923c72c8c2U, 0xbc8d9fc7bdcf60d0U, 0x3e51e83d3dc5431eU,
  0xbd72c8c23d038214U, 0x3e1027333e102733U, 0xbe1027333e1f53bfU, 0x3e639c36bd8d9fc7U,
  0xbdd97e833ea09776U, 0x3e4cd9643ca1db2cU, 0x3de8ab0fbdbb256bU, 0x3d5e8d5dbe00faa7U,
  0x3d4034443e4f60d0U, 0x3bf2c8c23e45431eU, 0x3d038214bd838214U, 0xbcde8d5d3db61692U,
  0x3e2971723e80faa7U, 0x3e89d4a43dde8d5dU, 0xbdc03444bdd97e83U, 0x3dc03444bba1db2cU,
  0x3df7d79bbe12aea0U, 0xbd0382143e6db9e9U, 0x3d8890edbc21db2cU, 0xbdfce6753d68ab0fU,
  0xbd361692bdca51f7U, 0x3e72c8c2bdd46faaU, 0x3df7d79bbc8d9fc7U, 0xbd17bd7900000000U,
  0xbe389dfe3d546faaU, 0x3dc5431e3e338f25U, 0x3e6db9e9be0d9fc7U, 0xbd546faabe00faa7U,
  0x3dbb256b3e51e83dU, 0xbc72c8c23dd97e83U, 0x3dc034443e0d9fc7U, 0xbbf2c8c23e860980U,
  0x3d72c8c2bd4a51f7U, 0x3c72c8c23e1f53bfU, 0xbd9ccc533e1a44e6U, 0xbe51e83dbca1db2cU,
  0x3d2bf8df3e56f717U, 0x3e75502f3dbb256bU, 0x3e12aea03e297172U, 0xbbf2c8c23e0b185aU,
  0x3df7d79bbc4a51f7U, 0xbe0b185a3cde8d5dU, 0x3c21db2c3e361692U, 0x3e47ca8abe47ca8aU,
  0xbe0b185abe00faa7U, 0x3cde8d5dbe338f25U, 0x3dedb9e9bdfce675U, 0x3e6b327c3dc03444U,
  0x3e389dfebd361692U, 0xbdca51f73d8d9fc7U, 0xbcde8d5d3b21db2cU, 0x3e51e83dU,
  0xbe15360d3ba1db2cU, 0x3dcf60d03e2bf8dfU, 0x3e7ce675bdb61692U, 0x3e3616923d17bd79U,
  0xbd991df03ccc27ebU, 0xbd8d56b63d857c90U, 0x3e1143cabd857c90U, 0xbe0969a33ddbdc38U,
  0x3da0f8173d1530ddU, 0xbdb499773e5dd2c2U, 0x3d4c27eb3e3c739eU, 0xbe42573b3e1b147aU,
  0xbceb9085bdd014feU, 0xbe4a31613e369001U, 0x3d991df03dc44dc4U, 0x3e20f817bd8969a3U,
  0x3da0f8173db0ac64U, 0xbe32a2ed3d444dc4U, 0xbe0f4d403de3b65eU, 0x3e057c903d444dc4U,
  0x3d63b65e3dd7ef25U, 0xbccc27ebbe32a2edU, 0x3d1530ddbd857c90U, 0xbe1143ca3e191df0U,
  0x3d444dc4bdb0ac64U, 0x3d1530ddbd8d56b6U, 0x3d24e52a3e6b9085U, 0xbe4e1e743db0ac64U,
  0xbe2eb5da3ddbdc38U, 0x3cbc739e3e38868aU, 0xbda0f8173d736aacU, 0x3db8868a3cbc739eU,
  0x3afb44d23d4c27ebU, 0x3d057c903cacbf51U, 0x3e7757bfbcbc739eU, 0xbe1530ddbe30ac64U,
  0x3d6b9085be794e49U, 0x3d8d56b63df36aacU, 0xbd0d56b63afb44d2U, 0x3dc44dc43e794e49U,
  0xbe59e5aebe6b9085U, 0xbcfb44d2bd6b9085U, 0xbc7b44d23e191df0U, 0xbe4c27ebbccc27ebU,
  0xbdc83ad7be2eb5daU, 0x3e55f89b3cbc739eU, 0xbe6999fbbda0f817U, 0xbdc44dc43e20f817U,
  0x3d736aac3ceb9085U, 0x3da4e52a3dd7ef25U, 0xbe2eb5da3e30ac64U, 0x3e3a7d143de7a372U,
  0xbe077319be483ad7U, 0x3e0969a3bd1d0b03U, 0xbe22eea03e22eea0U, 0xbdc44dc4bdd40211U,
  0xbe0d56b6bc7b44d2U, 0x3e018f7c3d1530ddU, 0xbd057c903c1d0b03U, 0xbe1b147a3cbc739eU,
  0x3e1b147abd1d0b03U, 0x3dd7ef25be6999fbU, 0x3ceb90853dc44dc4U, 0xbb7b44d23e1530ddU,
  0xbe24e52a3e736aacU, 0x3e172766bda8d23dU, 0xbcdbdc383e24e52aU, 0xbe1f018d3e5dd2c2U,
  0x3c81f0143e86cf7bU, 0xbd42e81dbd42e81dU, 0xbdc2e81d3d28eb4dU, 0xbe0eee7cbe496751U,
  0x3e852faebc81f014U, 0x3d886f48bd28eb4dU, 0x3e28eb4d3e122e16U, 0x3dc2e81d3e956db0U,
  0x3e052fae3c4fe686U, 0x3e28eb4d3e4fe686U, 0x3de9e3563d42e81dU, 0xbc1bece43c4fe686U,
  0x3d76e1bfbe3fa883U, 0xbeaa8b1abc1bece4U, 0xbe2f6a813d28eb4dU, 0x3e66a3bc3e18ad4aU,
  0xbdaf6a81bdaf6a81U, 0x3e3fa883bd956db0U, 0x3e805046be2f6a81U, 0xbe156db03d1bece4U,
  0xbdaf6a813dcfe686U, 0xbde364223d35e9b5U, 0x3e59a5543da26c18U, 0xbe4627b73daf6a81U,
  0xbe122e163e76e1bfU, 0xbcb5e9b53e156db0U, 0xbc4fe6863d886f48U, 0xbbcfe686be8a0f15U,
  0xbe25abb23ddce4eeU, 0x3e8eee7c3ddce4eeU, 0x3e69e3563e852faeU, 0xbdf6e1bfbe39294fU,
  0x3e39294f3d81f014U, 0xbe39294f3e970d7dU, 0x3e59a5543db5e9b5U, 0xbe1bece43ea40be5U,
  0xbdb5e9b5U, 0x3eb10a4e3d81f014U, 0xbde9e3563ece46b9U, 0xbe4627b7be98ad4aU,
  0x3c81f014be0eee7cU, 0x3d42e81dbd01f014U, 0xbdc96751be0baee2U, 0xbd81f0143de9e356U,
  0xbd0eee7c3d69e356U, 0x3e8baee23d1bece4U, 0x3c4fe6863d8eee7cU, 0x3e1bece4bd1bece4U,
  0xbe922e163df6e1bfU, 0x3e0eee7cbd8eee7cU, 0x3d42e81d3e81f014U, 0x3cb5e9b53e73a225U,
  0x3e122e163d8eee7cU, 0x3e9bece43e2c2ae7U, 0x3df6e1bf3ccfe686U, 0xbe59a5543e805046U,
  0xbe66a3bc3daf6a81U, 0x3e25abb2bc81f014U, 0x3daf6a813e0eee7cU, 0x3e2f6a81bd1bece4U,
  0x3e7d60f33ea26c18U, 0x3d1bece4be42e81dU, 0x3da26c183e69e356U, 0x3ce9e3563e0baee2U,
  0x3db54adabd779e6eU, 0xbd30dee1bdcfd2aeU, 0x3d8913213d779e6eU, 0xbbd43ea7bd543ea7U,
  0xbdcfd2ae3e1f2efdU, 0xbe733275be70fc79U, 0x3c30dee1be8c641cU, 0xbe0913213e04a729U,
  0xbe06dd253d2806efU, 0x3d428ec400000000U, 0x3e756871bdbe22cbU, 0xbe7e4063be091321U,
  0x3dea5a83bd5d1699U, 0xbd91eb133e02712cU, 0x3dc28ec4bcc28ec4U, 0xbe0b491e3e1ac305U,
  0xbd8d7f1abd428ec4U, 0xbd4b66b6bd5d1699U, 0xbe4058c8bd2806efU, 0xbd2806efbe79d46aU,
  0x3d803b30bdeec67cU, 0x3e0d7f1a3e1ac305U, 0xbdbe22cb3e4fd2aeU, 0x3d0d7f1abd30dee1U,
  0xbe06dd25bd65ee8bU, 0x3d16570c3cc28ec4U, 0x3e2ea8e4be25d0f3U, 0x3c9f2efd3da39af6U,
  0xbe2c72e8bdcfd2aeU, 0xbe11eb133e14210fU, 0x3d65ee8b3db9b6d2U, 0x3e188d083d9f2efdU,
  0x3dd8aaa0U, 0x3de18292be06dd25U, 0xbe44c4c0bce5ee8bU, 0xbd543ea73e63b88eU,
  0x3e4058c83d9f2efdU, 0xbd5d16993c30dee1U, 0xbb8d7f1abd428ec4U, 0xbc779e6ebdbe22cbU,
  0xbd91eb133e4930b9U, 0xbdcb66b6bd5d1699U, 0x3e5ae09d3e091321U, 0x3d16570c3e11eb13U,
  0x3c543ea7bbd43ea7U, 0xbc8d7f1abe5ae09dU, 0xbe1cf901be8c641cU, 0xbde182923d428ec4U,
  0x3e239af63ce5ee8bU, 0x3dc6fabd3e756871U, 0xbd4b66b6bd5d1699U, 0x3c779e6e3dac72e8U,
  0x3dd43ea7be5f4c95U, 0x3d2806ef3e1cf901U, 0x3d9ac305bdb54adaU, 0x3df79e6e3e188d08U,
  0xbdf79e6ebc0d7f1aU, 0x3e3beccfbc543ea7U, 0xbb0d7f1a3e0b491eU, 0x3e2c72e8bdbe22cbU,
  0xbc779e6ebd803b30U, 0xbd16570cbd543ea7U, 0xbe2164fabe70fc79U, 0x3b0d7f1abb0d7f1aU,
  0xbac57bf13c9d0b47U, 0xbd0e7c5a3d98edd8U, 0x3c76784f3d1ae5dfU, 0x3d2b5fee3dcf64e1U,
  0x3ca95f54bc2ad3c9U, 0x3e03777ebd1b975bU, 0xba3d99053dcd5b61U, 0xbcb7e87a3bca7270U,
  0x3ba53f713dd8448eU, 0x3d7546f83c4f562aU, 0xbc4c2f793c97ac10U, 0x3ca56ca63d8392c1U,
  0x3d6539513dae2504U, 0x3d04bc523c65a1ecU, 0x3d2143e33a8509cbU, 0x3d7fbc5d3da23ac2U,
  0x3cd51ab93cbcbbe1U, 0x3d335e713da1a829U, 0xbc7ca1163d2d7c58U, 0x3cdf3e13bd1004c6U,
  0xbc4b4a043dbd48e7U, 0x3dc79e323de22576U, 0x3ca6747f3df0d96aU, 0x3db003813c350181U,
  0xbca6f8b63dda7550U, 0x3c8304913aeb4614U, 0x3c79f4153dc27213U, 0x38a93f023d47cfcfU,
  0x3d7d99273dbc4622U, 0xbcf3f67a3d98ea79U, 0x3cb23a983b38d656U, 0x3d8f70403e1648bbU,
  0xbd20cf963e4039d8U, 0xbd7db432be785104U, 0xbe17bbb7bebfaae3U, 0x3ea4602dbecda222U,
  0xbe77daddbebd2891U, 0xbe751202be59ef26U, 0xbeb60c44bd8704d1U, 0x3ed7f72c3e861b38U,
  0xbe2ba26e3e0c64a0U, 0xbee893c7beaaf708U, 0x3ea24aa1be1852b9U, 0xbedb7146bec1f76dU,
  0x3dc7b9e43d560a35U, 0xbd94c82ebdc25080U, 0x3e9125413eb7fe05U, 0xbe201d54befcb9a8U,
  0x3d90d744be953699U, 0xbe3315d23d8079b0U, 0xbe223d3b3eaae6c3U, 0x3eb83954be30e1baU,
  0xbeadd287bef0284cU, 0xbe9d82afbed8cf9dU, 0xbed94ac0be20fd38U, 0x3d6d96ea3e691451U,
  0x3cddf51dbe9a637fU, 0xbe94c666bd81c959U, 0xbe81c8103eb47793U, 0xbeabefc83cd6d1a4U,
  0x3ec577493de3cce8U, 0xbe856ea53eab120eU, 0x3eda2e9b3ea0c21bU, 0xbed3c0673e945c4aU,
  0x3e40b4abbee2ac02U, 0xbe03fabbbe5091f1U, 0xbe3a0cb93e74a7c3U, 0xbea248993ea1ced9U,
  0x3cf235363ed78f96U, 0xbe98874b3ee75ff2U, 0x3db5fa853e1f3575U, 0xbda16551beabaf79U,
  0xbe800132befd8e8bU, 0x3e6d24e93e8a1810U, 0x3e9a8370be86de96U, 0x3ebc63bc3dffd19eU,
  0xbebbc77ebeaee865U, 0x3e337e8dbe91a15aU, 0xbed91686bc5819f5U, 0xbdf4d3b3badcf8c7U,
  0xbeb9384e3eb4bd96U, 0x3e860f9ebee7b0c0U, 0x3e0bb3613ca5e748U, 0x3e5a4a5dbbc3000fU,
  0x3e29e5833db3a3f4U, 0xbe40a6dcbd51accaU, 0x3e0c8915bf093768U, 0xbec7a82cbe2b0f58U,
  0xbd825d193e6060f4U, 0x3ea1b3f43e7ca84fU, 0xbeaac4b3beda18acU, 0x3ed5e443bea50a57U,
  0xbe3c3491bf13bf34U, 0x3d792acabea34d26U, 0x3bdf8c1b3e6ceb95U, 0x3d979befbe5c16dcU,
  0x3dbdafb4be5daf91U, 0xbdd33164be1aa217U, 0x3dfd8afebeef355fU, 0x3ceeefdabe8742b8U,
  0x3d1ad9e43dcbeadfU, 0xbf2913413dce921eU, 0x3ec7711abeb35c31U, 0xbe9763c43d51a249U,
  0xbe9386993e9383afU, 0xbec63812bedda3d9U, 0x3e830f35be713ccbU, 0x3ea2b9e43e7dc67dU,
  0x3e10caeebec6bd5eU, 0xbedef7a3bd1d1534U, 0xbe17f3ecbe9c4578U, 0xbe9b06d3bec2e49dU,
  0x3e6fc1a4bef10eb1U, 0xbeb7da863d844325U, 0x3e438613bea0e54dU, 0xbea37b5d3d0a57edU,
  0x3dc57ad73e9fe225U, 0x3eaa7d2a3e9c1a8fU, 0x3d576a1e3d921e5dU, 0xbe7f2f133d89b0baU,
  0x3d403883bdc473b7U, 0x3e9dd6e2be80d6b1U, 0xbc9c231d3e33e659U, 0x3c420378be137a36U,
  0xbe79202b3d166828U, 0xbe07230b3d37f1c9U, 0xbeafabe33e6ab308U, 0xbe8dff3bbdf2afdeU,
  0xbef6994cbdba6d5cU, 0xbe287f063dfe1834U, 0xbe4e40383e7b6b98U, 0xbe7218fc3eb5c907U,
  0x3e9903bfbe8c41c8U, 0x3e98a5d4be81ee7dU, 0xbe1335d33d72dacfU, 0x3d8b24d43dda46acU,
  0x3ea38011be4d6da8U, 0x3c8f11753e9dd971U, 0xbe5534d43d37096fU, 0xbe9caa79be8a2cf6U,
  0xbe8d531e3db15980U, 0x3e952a9b3e4112a8U, 0x3e3fa52d3e5d65eeU, 0x3e6e3a623e4ec253U,
  0xbea83cf43de2d1deU, 0xbe236064bea42523U, 0xbe94fdaa3da83310U, 0xbec7b24b3e4de330U,
  0xbdd2baf3be94c4a3U, 0xbdf25ca8bedf8e0eU, 0xbee30871be14b0e5U, 0x3e0a7ac5bd1fa0e0U,
  0xbd901ef5be36a16bU, 0xbed0a6de3e68c3e4U, 0x3e7384e5bc879a1aU, 0x3e8869b43e9495b6U,
  0xbd9e74283dd4ee17U, 0xbd59349c3deb25e1U, 0x3d8afcbcbeb4238dU, 0xbe383d353e88ad2bU,
  0xbdf22c07be99d9a4U, 0x3e80168a3e8c152bU, 0xbeb07a13be0a4b74U, 0x3e2c67733ebde6d2U,
  0xbd599b4dbedbe95bU, 0x3e7b4a38beaff85fU, 0xbcaa5b2d3ead3956U, 0xbebc7f50be59dcc5U,
  0xbda174d03e771ac0U, 0x3c8f203abd46eafaU, 0xbe89b6b4bdf2c41fU, 0x3d112eac3eb6897cU,
  0xbdb8af4b3e67a324U, 0xbcc96203bdb15c5cU, 0xbe958cdebe31ffbfU, 0xbdfc9fc53e853428U,
  0xbe67ff4dbc0f2751U, 0x3e94c2273e91ff0bU, 0xbea1231abe584e7cU, 0xbea1f6493e35c792U,
  0xbee3fffb3e28462fU, 0x3ecd4d3c3e5444aaU, 0xbd1dd8203e69662bU, 0x3eac2974be444013U,
  0x3e4a944e3e8d3d4bU, 0xbe42cbc0be8c57f1U, 0xbd985db23e01244aU, 0xbe8fabccbe1b7a97U,
  0xbc67d0213e16a5cbU, 0x3dff2c413da0e355U, 0xbe557f81bece30aeU, 0x3e44561d3e8ba995U,
  0xbdbb80bcbd070a2bU, 0xbd54d951bd4ba5e4U, 0x3e124975U,
};


ai_handle g_model_weights_table[1 + 2] = {
  AI_HANDLE_PTR(AI_MAGIC_MARKER),
  AI_HANDLE_PTR(s_model_weights_array_u64),
  AI_HANDLE_PTR(AI_MAGIC_MARKER),
};

